00110000101100001100000011111111010101001000111011000000001010111000000011000100100111001100010011111101
11100101000001000011100101001001000011011011000000011111111000001000000111111110111011101000010011111101
10111101001011001111110000011100110000110000100011011000101110111100001011101011001111101100100111111101
11100100111111010100111100100011101000010111011001001011011001000011100010111011101011011111110111111101
00110010111001110010111100010001000001011101110001100111110010011011011001100011011000011001001111111100
11001010111111101011011111001011000110111000111100101100101111001000110011101111011000100111111111111101
11101000111011100011101011110100111111011111000011100111010100111011010111000101000111101111011011111101
11001101000111001000000001000011011101001000110101000011101100100111101000001011100011000100110011111101
00110011000011100000100001000111111000111011010011000111011011110101000100010011110000100011011111111101
11001011110000000001001011110011100011110100010011000100111100100100010100000101000111001111010111111101
01001010010010100000111011000111110011111011100101110000000011101001001100011111001000110100001011111100
11001010111111110100101000011111111011010111000100010000001011101111111100011011001000111000001011111101
00100100010000010100110100010111110111101011101001000111101011000100110111011100110011100001000111111101
11010011111011001111111001000111000111001111011000111011001111010000111001001001000111101011101111111101
11111010111111001111001100011011010100100100100011010001000011100111011011010101000011001011001111111101
11011111110111001000010000001000100100100111100111011111111110111100010011010000011000001100111111111101
00010100001000101100001100111000111000001000101100001101000011011011000001001011000011001011110011111101
00101011100011001100010011101011000000010100100011101000100000000011111000001011010100011000000011111101
10111011100100101000100100111101000010111001000011101111110111101011010000001101001011111100111011111101
00101011011000110100000100101100011111111000001100001000000100000000110100001010111000001000000011111101
11000011110000000011000100110100111000100111100111101000010011000111101000100101000111110011011011111101
11001101000000110000011000101011111111111100101011111111101011100011100100101000101001001011010011111101
11111111000101110110000100100110101110010101111010101001010000010100100001000100101101111100111011111100
10011100001100100001111110000110000010001110000111100111100110111100011110111110000110111111000011111100
00001111010000011100110111001000000111000100001111010100111000100011100011001000011111111011000011111101
11000000101000011111000100101011001100011011111100101000100011011000011111011100000100100000111011111101
00011100001000110000010011111000000011000011110011111111001111010100001000111000011111101011000111111101
00010000010011011100110011011000000111010100000101000000011000111100011101000101001011011111100011111101
00101000100100110011011000101001001011010011100100000000111000111111101010111100101000101101001011111101
11101000110111001111010000011011010100110011011010111110111110111111000100100100011111110000100111111101
00010011101100111111011000011011110011111001001010111011000001000000111011111111110010111110111011111101
01000011010011111011101000111000010111010111110000110100100000000000101100101111010111010111000011111101
10111100101011111111000111100000100011011011100100100011101100000100110111101011110000010111101111111101
01001011000111010011011011110100111011001000000101000011010111000010111100000011100000101100110111111101
00110111011000110011110101000111100011100000000000010100001000011000001011101100001000000100011011111101
10111011010111010011100000001000010000010001000111110000110000100001000111111000111011110100101111111101
11101000011001001000010000110000010000000000110010111000111111100011001111001000010111000010111111111101
00000001001000110111001011100111001101000111100111001000101000000011111100100000111010111110111011111101
10111100010101001010111000000000110111100001001011011111011100001110111100000111010100100011000011111101
11110100010000101011101010111111001110111100110101000001000100001011011011010000100000001111011111111101
11010100100011101000011111110000100111101111101100010111100010111111000011100011011001000100111011111101
11101011100000010000001000001111000000010000011011110111111111111100011100101000111010111100011011111101
01000000001000100011111100101100101111001100000110111111100100101100000000000111100000111100101011111101
00001000011100100100101100100011101111101111001111000111000000010110111000001111001100101000110011111101
00000011010100011011010000110111110111100111001100111111010011111011110000000011100111000011001111111101
00100000111000101000000011110000001000110100110100100111010101001000111001001000000100111111011011111101
00011111101000101011100111010100110100000101001011100011010000100000011111100111100100101111100011111101
00000001001001001000011000100011110100100011101100101000100111001000100100100100111100001000011011111101
