1010011010011110011100111100
0100110011001110000011101100
1101011100100100100010001101
1111111100100111010011111100
0100100011001100010011001101
0101010011100111101011011100
0000000011010100000000011101
0001111011101100000010001101
1110010000101011100001101101
0010011000110011100110101011
0110111010000101100100001100
1101011100011110001011101101
1011001110101011010110111100
1101110001001011100100101101
0000101011100000001001001100
1011011110010100010000111100
0111100010001111001001101100
1100000011001111100010011101
1100000000110011110001011101
1001010000100111100010011100
1000011111110110000101011011
1100100010100100001101101101
0111011110011011110011101100
0001011111011011100100001101
0011101101010000100100101101
0001000100010001000011111101
0010010000110111110111011100
1010010110011100010011111100
1101001111010000101100001101
0000101100011111101011101101
1111011100111011111111111101
0001010100101100001011111101
0001111101000010101011101101
0011100010000100111000001100
0100100010010000111110011101
1110000100011011111100101101
0111111110101000001110101100
1101111101000100011100001101
1001000001011110011010011100
0011101111010111000000111100
0100010001011100011011101101
1101100100000010100111111100
0111010011001110110001001100
1001010100110000101100001100
0000010010101011100011011101
1110111101010000111011101101
0100010000010011010000001100
0001010101011010111010111100
