0100010001000001011111001101
1100100000101011111101001101
1011110001101110000010001101
1111011011110011000111111100
0011011011011010010100101100
0111111101000110111000011100
1011000100010000101101011100
0111100110010111110101011100
1110010001011011000111011100
1110000110010100101101011100
1111001101001101001011101101
1100000001000000001110111101
1101000100100010010011111101
1101010101111011001001001100
0100000010100011001101011101
0000010100011011101100101101
0110111011011011101000101100
0100000001100110110110111100
0100001111100000101011111101
1101011111011110010110001011
0011111011111100010010011101
0000011111101001100110011100
1111000100010010101100011101
0100101100011101110010101101
1110011100001111110000001101
0000011011000100101100001100
1011101100101101110011011101
0010101100111010010100001100
1011100010110001010000101101
1001000011001110011101001100
0100000010010010110100011101
0100110001010110000111111100
0100100101111110110010011100
0101110001011101010001001100
0001111010101001100111101100
1011100001011011111100001011
1000100100110110010111011100
1011100001011101000011111101
0011010001001010100001011100
1110001011110100011101101101
1001000000111101011100111100
1110111111101000111110111100
0110001010101011110011111100
0111101110110000111101101100
0110010110110011001110001100
0000001011111110101110101101
1011100001000011101101111101
1100110111110110001000101100
