1101101001000110001101001100
0110001110001011100010111100
1110110001101011110010011101
0100001011110100000010111101
1110000100101111001101011101
0001011011010000111010001100
1000101101010011011000101100
1101011011110100001101111101
1000011100001110011010101011
0110011010000111110001001100
0000011100001101000011101101
1100111001111110001101011100
0011100100101101000001011101
1110101011111110101110011101
0001000111101011110101011100
0111111110101100111111101100
0010111011111110010000101101
1000100111110111111010101100
0111100001111101011011001100
0101010111110100110101001100
1110001100101011101111111101
0001110001000011010111001011
1011100000001100011100101101
0001001100010110101001011011
1010010110111010111100011100
0111000010010011101010111100
1110100000001111011100001101
1101100100001110100011111101
0001010100011111000000101100
0100010000100010101100011101
0111001110000100111010101100
1011111110111111110001111100
1011110011110010111111001101
1111110100000010010100001101
0010011010000101110111001100
1101001111100000000100011101
1000111011110111101010011100
1010111000011011000110011100
0100110111000110000110011100
1011111100111111000000001101
0101010101011111000000011100
0100100100101101001111001101
1111010110010000101101001100
0000011100101100111011011100
1011101101100000110000001100
0100100100101110100011001101
0101011111101011010111111100
0000101011110100001100001101
