10101010011000011011
01000010111110111100
11110111000001111011
01111100011101101011
00001100111001001100
00110001000101111011
01111010011100101011
01110000010000101011
01110001011001101011
00110000110101001100
00000101001000101100
01001110111011101100
10100111001101001011
10011001010000111011
11110001110000001100
11000111010101101011
10111011010001111011
01000010011000111011
11000011001111011100
10000001011101101011
10101100101110011011
01011011010101111011
01000000101001011011
00001101010111101100
01111110110101101011
01000001010011111100
00100010101000111011
00111100110100111100
00100100000100011100
00110010010011101011
00110001000110111100
01101101111100101011
11101111010000011100
00011011110100001011
00010001111110101010
01001101000011101100
00101100110101001100
11001111111000101100
11111011110100001011
00010101000001101010
10001001000101011011
01000011111000101100
00000100001011011100
01000011011100101011
01100111100011011011
11110111111010101011
11001110100100001011
00001111001101001100
