0011001100010000000011010100001111000001110000001101
1100001011010001111001000100111001010100110111001101
0010000000000000000010111111000111000101110111111101
0010001100110010111000111100000111101101111100101101
1110010011010100001011100001110101011110010011101101
1011111111101111000111100100111000010010001101001101
0011111111011111001111110001001011001100111011101101
1101110011000100001100111100001111111101001000001101
1101011111001101111001111100100011001010011110111100
1100010011111110110101001100000001001110010000111101
0100111100101110000011101100001100111100111000101101
0100111101001101110011101111010000011111001011101101
1100111100000101111111101111000111000100001000011101
0000010011011101001011001101001011100000000011111101
0100000011110010000111100010000011001100111100111101
0100111110111000001000011110000000111001011100011100
0010000100010011000111111111111101001110110000111101
1110001111100100110100001101000001001100110111101101
0011110111010011010001001111111100001100110111011101
0010110100100010110101001110111011010100110111011101
1110111111010001000100100010111011100000110000011101
1010001100010111001100010110000101110111000101101100
0001010011011100010011001101111100111110110100011101
1110110000010010111100100000111100001101000100001101
1011111000100010010001001011010011111111111111011101
0001010100000011001111010011000000110010000000011101
0000000000000011000111000000000011001111000011001101
0011001100101110111000011100111000100100111111101101
1001011101100011010100000000010100001101110011011100
0011001001001101000011100100110000011101110101001101
1010010100010010010000110111001110100001001001111100
1000100010011000111011101100001011001000110011001100
0001101001000111100100011001000110110111010011001100
1101001000001100110000100010110000101101000100001101
0101010010110100101100010100011100110001011000101100
1111000011001111000011011101000001000010111011001101
0010001010110110101100011011000101110011011101001100
0100010111101110001100100011110100100101110111101101
0000010001001111110000100011010111100011110111011101
0001110100111110110011001100110000100010111100101101
0001111101001101000111111111010111001100010000111101
0000111111001100010011010000111000110001110111111101
0011001000000011001111011101110011000010000011001101
1100010010111100010011100000011011011110001111011100
0100110011011101111101001100000001001101110011001101
0000111000110011001111010011111101001110111000001101
0001000100100000111100010000000110111101110111101101
0001000100010100111100110010010000000011111100111101
1110001001010001001100010000001110110100111011011101
1100000111001100000001000011110111101101010011101101
1101001100000000001000111100110011000001010011001101
0000001111100101111011100001110000001101001011001101
1111000100101111110011011100001101000100000011101101
1010010000011011101101001101010011100100111011011100
0001111011001100111011010100001111111110000100001101
0001110000010010111100000000001000110011110000011101
0100000100100000001100111101000011001110001100001101
0000110001110101000101000100010101001110110110101100
1100110000011100000111010011001100001101001011011101
0011111111101101010011010000111100001110110011011101
0010010000100000111100010011001100101101010101001101
0100000001001110001011110011111011010011000001001101
1110110100100010111011100011111000000101010100101101
0100111001001110010101011001010101010111000100111100
