0000000000000000000000001000
0000000000000000000000001000
0000000000000000000000001000
0000000000000000000000001000
0000000000000000000000001000
0000000000000000000000001000
0000000000000000000000001000
0000000000000000000000001000
0000000000000000000000001000
0000000000000000000000001000
0000000000000000000000001000
0000000000000000000000001000
0000000000000000000000001000
0000000000000000000000001000
0000000000000000000000001000
0000000000000000000000001000
0000000000000000000000001000
0000000000000000000000001000
0000000000000000000000001000
0000000000000000000000001000
0000000000000000000000001000
0000000000000000000000001000
0000000000000000000000001000
0000000000000000000000001000
0000000000000000000000001000
0000000000000000000000001000
0000000000000000000000001000
0000000000000000000000001000
0000000000000000000000001000
0000000000000000000000001000
0000000000000000000000001000
0000000000000000000000001000
0000000000000000000000001000
0000000000000000000000001000
0000000000000000000000001000
0000000000000000000000001000
0000000000000000000000001000
0000000000000000000000001000
0000000000000000000000001000
0000000000000000000000001000
0000000000000000000000001000
0000000000000000000000001000
0000000000000000000000001000
0000000000000000000000001000
0000000000000000000000001000
0000000000000000000000001000
0000000000000000000000001000
0000000000000000000000001000
