0000001011001101110100001101110100100101001000111110110000100100110011110010110011010001010010111100000001001100111011110100110011100001001000000001110000010100111111010000010000000100000011111101
1110000100000100110100101101000011100010000111111111110011000001001100100011110110110001001111011110010011110010000001001110010001001101001001000011010000100000000000110000000111001110001100001101
0000000111111111000000111101110111011101110000110000111000010010010111010101110000010011000100011100111111100100010001000000010011110100000011010001111001000010000000001100110000000010110100001101
1100110111100000110100111110010000111111110101000100010011111100110000110000000001010011110100000010110100010000111011100010000111010010111000011101010000000000000000100011000011110010010000111101
0010001111011110001000010000111100110000111001001100010000100010110111101111110000100100101100101110110111100100001101001101001001010010000000011111111100001110001000101100110000111100111000011101
0010010011110011000111110000000100101100010001001100010001000100000000010000000111111011000111011101110111110000001000100010111011011100110111001100111011110011110000001101111111000001110100101101
1111000001001100110011100100110011100011110111111100111011010100010000011110111000011101110100000001000011111101110001001101001100010001111010110011110100001111111100100001010001001100010000101101
1101111111100100000001010010000001000000110111101110111000101110110111011111111111100011000001001111111001001100110011110000000100101101111111001110111111100011010011010000000111010100110011011101
1101111011011100110000101101111111111111000001001110000000001100001011100100110100011111001100001101110011110100000000011111000111010010110011011110000111011111010011111110110111100000000111111101
1101010000100010111011110000010000001101000000100100111000100100000001000101110100011111000011110100110000000011010111010000111000111110111011110100111000000100001111111110001111001111010001001101
0000111000011100000101000011110100101100111111010010000101000001000100011110111000001100000011000010010000001101010001000000111000101101000000100010111011011110010000001101010000100001000111001101
1101111000110011001011011110000111100010110100101110010000011011000111010001001011110011110111010011111000101111110100110000010000000001110000101111001011110100111011101101111000101011111011111101
1110000000110101001000111111000001000000110111101111110101001111111001000000001011111111000100010010010001001100001101000100110100101111110000101101111100100100110011011100111100110000111000011101
0010000100111101001011000011110000011100001011001100000000110001010111110011111100101101000000111101111011010100000111100010000000111111001000100100000100001110001011000000111011001111000100001101
0001110011011110000011111110000111001100111100110001000000101111111111110000111001000000110100010000110111101101000011011100001011100000010100000011110111111100001001001111111000000011110011101101
0010001011010001010011111101111011000100111000011110110011010010000100000011111100111101110100100010110011001011000100000011111011000000001011101100001100000100110011010001000101000001111100101101
0011111100000001101100101110110100001100010000101101000100010000000011101100001000001100110100100010001011010001001011010001111111100100001011110100001000101111001011110010110000111111111011111101
0011010011001110110100110010010001010010110101001101010011010100000111101110000111100011010000010011000111110000001101000100000000000000000100000010001000100000000101001011111000101111001111001101
0010010001000100001011101111000100000010110011111100111100111110111100110000001000001111000000010000001011010010001110111101000111010001000000000001000011010001001111111110001111100100000100011101
0001110000001101010000011110111010111110000111000100110111001110001011110010001111001111110000110011110101000101000011001110111011100001110000011101001011011110000000001111001100101111111000011101
1100010001001011110000011101110000010010000111010001010011100010000000010000001111010100111111011110111100101100101100000011001000101111110000001110010011010010001100010001001011111110000100011101
0001111111111110010011011111000111001111001001011111111100111100111011100010110000100001001100100010000100111100111011001100000000001100110101000010001100010011001111101111001000001101111111011101
0010110100100010000011011100010000111111001010110000010011110100000011100011110011000011111111101100001000101100001111101101111000110011001100100100000100101100111001001101001000101101010000101101
0011001010111101000101001110000111000010110100101111010011001111001101010001000000110011110000001101110011011110000011001100010100110011111111111111000000011110110100010011000111000011101100001101
0010000111001101111100001101001011011110110000101111000100100100010111100000111001000010010011100100111100110100111011111111110000110000110111001011111100100100000000111101110111011100000011101101
0100001111101111000100001111110100000100001100111111000000111111111100010001111111010100001001000010110000100010111100011110000000110100010000011100001011001100110011010000111000111100010000111101
1100000011011100001111010010111000001111111100010100110100000000101100000000000111101101111111000100101100110100000010110011010000111100110111001101111100011100000100000100111001001111110111011101
0000000111100011111000011110000100101101010011110010001111111100010001001101000000100011000100001100000001001101001111100010110001000000111000100100010000000100111100111111010001001110111111111101
1101010000111100000111010001001011001110010001000010000100101101111011001101010000101101010110110010001000010101111111111110001011101101001000011110111011110001111000001111001000011100010011011101
1111000000010001001011111100111111000011001000110011010000001100001100100011110011001111010000000100010011110100111011111111110011011101001001001101110000100001001011100011000001011110111011111101
0010000011100010001011100010001101001110000100100011110100010001000001001101010000101101001011111100111011111111111111000011001000001110001000010101111000101110111100000011010100011111101100111101
1100110111111110111000000010000011110010111100111110001011000001000100111110001000100011001000000100001000110011010011100000000111001101000100110010000000110011001000010011111001010010010100011101
1110110011110001000000011100000011111110000100101101000000010100110000000010000100001101111000111101111100010001010101001110110011110010110101000100001000000100111011111101001000001100110011011101
1101000000110000001101000011000111100000001100001110001111111110010001010100001111100011111011110010111011110100110011100100001000110001001000101101010001010100000011100000000011110011111000001101
0000000000010011001011101100110000011111001011011100110001011111001111111100111000001100000000001111110100110011010000110000110111010000000111111110111000000001010001001100001000001101000001001101
0100001101000000010100111101001011011110010011110000000100110100111111100010001000001111010000111111111111011100010101000010110101001110110011100010001001001111001000101111000101000100000000001101
1100111000110000001101010100010000001110010101010100110111111101000100010100001011010010110011000010111001001100010000000011001011000100111011011110001000011101000101001100111000111110111001001101
1110110011001100111111100100001111011100110000001101000101001100110011010010000100010000111011001111000000100100001011001101001100001101111000100000110011111110110111100001001100001101010000011101
1111001100101100110101000010001111111101111000010011111011110100001010111100001111100010110011000011001011101101111111000100000011010010001100000100110011011011110100110100111000101100000100111101
0011110011111110110100011110010011100001111111101111000011010100001111000010110000011101110011101100000001001111010011000010111000101101010001000001110000011101000111100001111011111101010000101101
1111111111001100111100100001001000010100110100001111110100011101001100010101101111111100110100000000110100010011111011111110001100010100101111111101111000010100111011011100010000010001000000111101
1111000011100010111000101101000111100101110011001100000001001111110000110100001111001111110111011011110100110001111101000001111100011100001011100100000010111110111100001110001111111101001000011101
1100000001001110110110111100010001011101000100000010010000111110001111000011110000101100110000110000000111111101110111001111110011101100001011011110111100100010110111101100110000101111111100001101
0100001011000011001001000100110011111111001100001111111111000000000111011110000100010100111111101100001111111110111100000000111011110010001100010010000111100000010011001111111100011100110000101101
1111111001001100110111111101001111001101111000100011010000000001111011111100110000000000010010111111110111111100001100111111111011101110001100010001111000001111001000011100010011010000000100011101
0000111100110001110111101100110111010100111111111110001111101101001011101101111000000010110111100011001011101110001101001100111101000010010011001100001100001100101100000000111100110001000100001101
0010001011111111010001000011010001000010010000110001001111000100110011000011001000101100000111000010111000010001000011100100111101001110111100000100111000100101001101000001111000010010001111001101
1100001001000011010011110010010011111101000001000010110111110100000111010010000000101100001111001101000100000100010000001111110111110001010011010000000100100011001100110001111111101100111000111101
1100110000111101001101001101001000101111010000001111000100100000010001001100111001000010110011011101111011101110000001000001110011001100111101001110110001001101001001000100010001000100111111011101
0011000100010100001000111101001111100001001000000001010111100011001011010001111011000001111000001100000111111100010000001110111000010001111101000001010011111101110100011101000011101101111111001101
1100001100011101111011010001010001001101001000110100110000010011000100100001001111111100110011001101110111101101010000000011001100000010000000011100000111100000010000101100111000101100110100111101
0001111111101111110100101111000100100000000111001111001100000100111100110001111111100001111000001111001011000000111000001101010000100100001100010001111100111111110000101111110111010001001101011101
1110010001000000010000011100111111000000111100110000110101000001110101001111001111110100111001001111111011111110111000110001001100101111001100011110110100011101111100100000010000101111001100001101
1100000000000011000111000001111000110011111011000100000100100011001100001100000011001100001011010000110100010100110100000010000000111111110000010001111100111110000000011111000111110000000100111101
0000000100011101111100101100110111000010110010110001111100011101111000011110010000101101010001000100111000011100000000101101111100100100001000101110111111010010000001000010110100100010000100001101
1101110000000001001010110011110011101100111011010000111100001100110011110001000000000001010000110100101111001100001000100100111101001110010000101110001000110011110011001110000100100001110000011101
0000010011111101000000010010110111100100111101000011110000100011010011111100001111000000110001001100000111110001000111101111111000110011110000101111001111101011010000000010001011101110001000011101
0001111111110100000100100100110100001111111111011100010011011111000100111101110111110000110111010000000011101101001100000010001101001101000011010000110111000001110011000010001000011110001001001101
0000010000011110111000010000110111000011111110110010111101001110111000000010110100010100111000001100001011101111000100000000110011110001001011110100111000001101111000011011000000010010110000111101
0011110100000001110011001101111001000000110111001111110111100101000011110100111001000100111101000010111111111101000111111100010011000010001111110001000111110100000100001111001000100010001011111101
0010110000001111110111000000001111001100010000110011000000001100010011011110110100100100000011001100001011110011000011101100110001000100111100001100111111010100111100111100110100000100001111011101
0011001000100011111000000000001000001100111111000011111111101100001111010010111011110001001010110000000011000000001011101110110100011111111111100100010101000010110011000011111101000101000111001101
1111000001001100110100000100001100101111111111110100001000110000010100011100000101001100001101011111110111110000010011110011010011010010111111101100110100011100110000011100000000011111001111001101
1101000011100000101111110000111000100010000111111101001000010010000111000001010000011111001111111101000100110001110000111111010001000001001101000011001000011100001011110010000100010000000000111101
0100111111001110110111010011111100000000110101011111111001000010000100001111000111011101001001000100001011001110001011000001001011110001010011010011000011100010110000010011111100001100110111101101
0100111111100010000000011101000011100011110100001110000011110000111001010100001000001100101111111111000100000100111001001100111111110001000000010000111000011101000000010000000100000010111111101101
0001110001000011001111010001000000101100001011000011110001000011111011001101010000101101000111010001110111101100010001010010110100101110000001000100010000100010110001000010000100101100001111111101
0100001011101110001100110001000000011111001101000000111000011101110011000000000101001111111111001111001000001100110011001111001111011101110000111011110111001110000111001111000000110011000000011101
0010111100011100110000100011111000010000111000100011111000011011101111000000111011000000000100101100001011001100000111110100010011001110001111011100001100100011000111010000111111010011001111111101
1110001000001110101101001111000111100010111000110010001100110000001100011100110011000001111100111101010011111110111011100000000101001110000100011110010011111111001111000000001100100000010000101101
1100001111111011111100110101001101000011000000100011001000110011001111111110000111100001001000101101001111110001000000100011111100000011010011010010001111010100110000000010001000111100010000101101
0100001011011101111100110010000011000100111100101100000011101110111100100001111011100001111100010001000100110000001000010010001000110001000011010000000110110001000100101101010000100001001101001101
0100000011010011110011101011001111111110111000110011111100010011110000101101111111011100110011010000000011001111111111100010110100010011110011001110110111100000000000110001111100001100010011111101
1111000011101100010100110001000111011111001000000011001011111100000111010011110111100001111111010100110111011011001011010011001010110001111111111111110100110001001001000101110011100011001100011101
1101111111010101010011101110110011001011111001001100000100001101000100000010101100001111001111000000110011100100111100111110000101001111110100001100000100010000000011010011001100001111010000111101
0000111000101100000000000001110111010011001111100010010000111111000000101101000111101101000100000010001000011100000100000001000011011111001000010001000000101101110100000011001100110011111000011101
1110001011000010111111001100000111101101000111110001110100101100000001001111000000000101111011111110110011010010111100110010001011010100001111011110001111010010110100111111110011000011101110111101
0000110010110001101100011100110100000010001011110011111011101100111011110001110000010100010000011111010111011100001111101111000000100010110111010100110011100100000100100011110110110011000000001101
0010111111001101111111000100010000000001000000011111000011100011010000110010001111100010001100000101110001000001010011001101111111000010000100100000000100010010110111010011110000011110111111011101
0000000000010001111000010010000111100100000011110011110000000010111100010000110100110100111011111100010011111110110011000011000011100011000111001110000100110000000011110010000111111101000001001101
0000001001000100111111000011110011001101000011110100111100110000111011101111110011000001001111111100110000011011110011110000111011110010000111111100001011111111111000010100000111000010110111101101
0100111011101111111100001110111011100010000000101110001111000100110100001111110000010001000001000010111100101111110000111111010111011101010011010010000111011110111000001100110100010001010000001101
0001001000001101110000001111010001001110111011110101111100100101000100110100010000011011110010110010000000011110110011010000110100111110000011001111111111111101111111010100000111101110000011011101
1101010011111111111001000000111000001110111100000001001000101110110111111110000100000010111101001101000111011101001101000100110111100100110000100011001000010001010011111111000111001110000011011101
1101111000010010111111110000111100100100001100000001111001001110000100010011001011110001010000101100111111010100001100111110000111000001110011000001001100010001111111101011001111010011010011111101
1110111001001110000101000001001000000001000011110001111100100000111000110011000100000100110100100011000101000010001000111100010111001110000111011101001011000001010010111110110111001110001000011101
1101111101000001001100010010001000101100110000000011111111010010110011010001001000111101110000011100000011111101111100101101110000010011010001001100111000101101111001000010000011111100111111111101
0001111100111110010011000010000011111110110000111101110000101101010000100010000011101110000111010001111111100000110100111110001100111111000001000100110101000001001000010011110000111110001100011101
0011000100010001111111100011010000001110111000011110111100001110001111100010111001000000111101001101010000110100000100101111111100101111001111001110001111001101000111001101111011111100010111111101
1101001100101100110000100011000111010000000000101110111100110001000000110010111100010001111001001111001000001100111011010100000001000011110111001101000100001100000011000000000100111110110011001101
1100111100111110000001000000111100101101001000111110110100000001000011010010001111110100000000100010110111101110111011000000101101000101000011100100000011100000111000010100111111101111111101001101
0100111011000010000000010001000000000010111000010000001101000001001011001101001100111101110110111011000000010000000000111101001100110010111101001110000100101111111011001101110111000010010000001101
1101111111110000000100011100000100011110001111000010001111100001111100110011111100110100111011100011000011111101111111001011001000110001001011000000001111011111110111100011000111010000000100101101
1100110000101111001100010000010011101101110111010100111000001110110111000010001000010010000111111101111111011101110000100001001111100001000111111111110100000000010001011110111011111110111011001101
1101000011000001110011101110010011000001111111001100001001001110111111001101000011010100110111001111111111010011110101001011110000100001110000011100000101000010000111000011111100101101111000001101
0010010011001111110000001100000000001111001011000010000100100011001011101101110111100001001000100100110100101110001100001101111100001101000011111101010011011110110011011101000101000100110101001101
0100010000000100010100010010111000110000111111110011111000110000010001001111110101000100001000101100001111010010001011011110000111100011001000111111110101011100111111010010001011110010010000011101
0010110111100000110011100000111011001110000011000011010011010100110100101110000011100010110100100011111000110001001100000010110111111100101100001101001101000001010011001101001101000000010000011101
1101111001000010010011011101111001001101111011110100110000011100000100110011001111010000001100111111000000100010000111111111001011001101001111110000111100011110000100111111010100000001110001001101
0100000011100011010011100100001011000000111011000001000111000010000000111110111001000010001000011101001111101100111011011111001000101100000101000101010111100011001011101110000101001100110101001101
0000000111100010111100100010111000000100000101001111010101010010111111010100111100110010000111101110110000010000010001000011110100010001110111011111110100011111000011101110001000011110111011111101
1101010001000010111101000011111000001110010011100100001001000000000100000000111011101111001011010000110100100001010000100001110100111100000011000100000011111100001001001110110111110100110100011101
0100001111101100111100110010000011000001001011010001111100001111000011001110010000010100010011011111000100101101111000010000111100001011001000000011001100010000110111010101111000011110000011111101
0001001100000000110111011111001000101110111111111110001100101110110000010001110000010011110000111111111001000001110001000001000111011110111011101110000101001111111000110100110001000011000011101101
0011001000110001000011001111010111111100000111111100001011000000000100100011000111011101111011101101001111110000000000101101000011110001110100010000110000011110111100010001110111011110010001001101
0001111111111110110011000011010101000001110011001100010001001100010000000010000111100001001000100001111101000010010011111100110111000100110100101111111001000011110011010010111000011100000111111101
0011010000100000110011001111010111100010110111101100110100011110110111111101010000111101110011000001111000011101001100100011111011011101111111011110111100010010110001010010111100110010010000001101
1110101111111101110100000100111000011101111001001111111100011110001011101111000111011110001011011110001010110000111011000000111111111110111111001110001000010011000111101101110000000000001100111101
1101111111110001111111010000010011101110001100010010110100000100110000000010000111010010110100011110001011010001010011101101001001010011111000111110110100100000001111001101010000101111111101001101
1101001111001110001000110000111101001100001011111101010000101111000000110010110011000010001111001111010011111101111000000101001111101100000111101110010011111101110111100000101111100001000100101101
1110000000101111111100111111110011011110110000110010110100000001001111000011010000101110001101001111001100100001101100000000010100111111110001001111111011101100110011001111111011011111000000001101
0001111111101111111000100100111111111011010000110100110111011110000011101110111011000010001101000011001011111110110000111011101100010001000011000100010011000011001100110100110011000010110011111101
0001110011010100110011011100001000100101010001001100000111001111111111100101111000110001000000011100001001001110111011000000010000010000110100110001111011110001111000110010110100010100111111011101
0010000000000001001100010010001101000100000100001110000000011101001011000010010011011111000011011110000100000100111111000000110011001101111111000001010001000000001111100100110011100000110100011101
0001110111111100001100110011000100001110001000001111000011010001110111110001110000001111111011110000000011000001001100010100001011001111111100110100110100001100001000001100001000100100010011111101
1100111111110100001011011101000100011101111000110010110101000011110100100100111110110100001000110000000100110010001000100100110100100100000100010010000111011100111000001111111100100001001011101101
0001111100000011000111001101110000000010110011101111000100011111000011001100010011001011001111110000000011100100110101000010010011111110110011001111111011101100111100100000001101000000001100111101
1111111111111100010000111110000100000000001111111101010000101100010011111110000000010010000000000100000001010100000100100011001100101101111000101101010011100010001000000010111011110100111100101101
1111110011101101111101001100110101001111001011011100010000011111001011001101111000110100111111000011001000101111001111000001110111010010000000010000111100100011110011011101110011111100111100101101
0011110001000010110000111110001100011011110011010011000100100100111000000011000111010011000001000000010011110001000100111110010011100011110011000001000001000000000100001100001001001100110100101101
1101010011111100001011101111111000010000000011110000010011011101110001000100000111101100000111101111000100110011010000011101000001001101010000100001010011010011001101000000000011100000110100001101
1111001011000000001011100010000001000101001001000001111100111111001000100100110011010011000000000010001011110100010000010100000000101111000100011110000011010011001111000000001111100001001000011101
0010111000001110110011011101001000001110000100110001111100110000110111111111110101000100110011000011010011001110111000110010001111100011001100001100111000011110001100010000001011000011010011001101
1101010011010000000100001101101111111100001011110000001101000100110011001111010011101100111000111100000001001101110111000011001000011111111011000000010011001101000100000100010001001100001000001101
0010110100101100111011001011110011100011000011011011110111111111001100011101111011010100000100000001000011000000001111001110000011101100111100101100010000011101110101001111000100001110010000011101
0100001011111100110111000001001011010100001111010011001000000000000011000000000100010001000111001111111011010011111000110100010001001100110001001100001101001101010011100010111100000000001101011101
0000001011011111001010110011000100000000001011000001010000101110010011110101000000000011010100000000111111111111000111001110000111100000001101000001111100111101110100000100001111011100110111011101
1011101111110100001011110010110000000010001000001110000100001101110101000100110011010010110001001111110100100000111100101111010000100001000000000011010100111111111001000001010011001110111000001101
0000000111101110001001000010110011101100001001001100000111111101110100101101001100110010000100111100111011111110010001010010110100101100110000110001001011011110010011110100111100010011110111011101
1111111000110011111111110010111011111100000111010001010001000011111011111111010011101100110100110001010011010000111111100010000010110010001100111011001111100100000100000000000011101101000011001101
1100000111101101000111101111000011010001000000001101001100100010111011110011110111101100000111010100110111000001001000011111000100010001001000111111111000100000110000000100001000001111110011101101
1111111111010001110111010100010001001111001111111111000011011111000011001100111100001101000111110000000000111100111100011101000000001101001100011101000011101101110000011111000100101111110001001101
0011111100000000000001000100110100110001010000101111111110110010000101001100111100010010110111101101001111011111010000101101010000111101111111011101001000001110110000011101000111110001010000101101
1110001001000000111011010001000011100010010000011100110100101100000100100011110011010100111000100010110111001101111001001111010000000100000101000010111111000010001100111111010011000100111100011101
0000010001001101111100111110110100101101001011000100010011111111111100011100001000011011110111111101110011111100001100000011010000111101010000001110111100110011000011010010000000100010001111101101
1110101100110100110111100100111001000010000011001100000000011101110000110010111111000010001100001101000001000101110000010011000001000001111101001011010001001101110000110100001100110011110011101101
1110000100011100111100101100110101000011010000100001000011110000000101000011001100010001001011110100000100111111001101001100001111010000111100001011110011110000111111000100111001001101110000111101
0010001000000000001111101110111100101111111000101100110100010100110100010011000111101101000001001101001000100010110000111101111111110100000000100001000100011100000111000011000100100001010000001101
0001001101000001111100010010110000100000000100101101001100001110001111010011000011110100001011100010111100110011000111000000111000100100001010110100010000100001010000101100010001001101110011111101
0010111100111110010011000010111111001100111100110000001000010100110011110100111000100010111011111110001100100000000100001100111111001100101111001101000011010100110011100010110101001100001000011101
1100001000100001111001001100000000101100111100001111110101001111111111101101000100000010010011110000010000000010000100111101110100000100110100101100010001001110000100000000110111101100001000101101
0010000100100010001101001100000100100100000011000011001100011100001100010000000000110010110000110011000001001101001011011110101111100100001100101100001011001100001100010010000100000010001111011101
1110000000011111010110110001110100001110110100111011001000010011110111100000110000000100010011000000000000001101111111000001010001001101110011101101001111011110111011100011110011001111111111101101
1100000000111110000111000010111111110010010000001100111101000010001000010000000011001111000111110100110100111110001011000100110000010100001100011110001100100011111011001101000100011100010011111101
1101111111001100111011100000111000111110001101000011010000101100000100000011101111010011110000110010111001001111110000100100000000100100111101000001001101000000000101000011111000100011000000011101
0001111111010010111000000010111000100011110001000100010000010000001011010100110000100100000000001100001111011011111111100010000000001100110011101111111011111110111000011110000011100000001000001101
0100000111100011001000010100000011010011000100001101000111100100111100100010001011010100000011110000010011000001111000110011001100000100111011111111001100011110000111100010111111110001000000001101
1110111011111111010011000001110000011011010000001011000100000000000000011101000000000010111011001100001000111111001111010100000000111111001000000011000000000010010011000100001111110000111101001101
0100111111001111001011101111010001000000111000111111001011000001000101001100111011110001000011111100110111011110110000111101111011101101010111101101000001000011110000011111001011011100111100001101
0010001011011101010011111101001100001101000110111101000100000001110111101101111100010000010011011110001000011100000100110001110000000010000100000011111100000011001111101101110100110001000011001101
1111000011000010111011101101010111011100000011010011111011001110001011110001111101000000001100100001110000110000110100101111000111111110001011110001001100100010001111001101010011100001111111011101
1111001100011111000000011101001000001100110011110100110000111110110000010000110111010011111011010100010011010100010011011100111000100010001011100010110111001011001000110100110000010011000100111101
0000000111101111110011111111001100010011111001000000001011101101110000011111000100100001111011101100110000111110000011100101110111011111000100000100110111000001111100000100111101000000010100101101
0010110011110001000000010100001011010010110001000010001100100000111111111110010001001011000100001101110111011100001100100100110001010011111000111111000111110100000000110010110100100010110000101101
1110001000101111010011100011111111100011000011100000001000011110110011111111111011000010110000000001110011110011001111111110000011011110001111011100101101001110110011100001010001000001000011111101
1111001000001100000000010100000011111110001100110011111111101111001001000100111011110011111111001100001101011111001100101101000111111100001000110001001000011101001000110001111111000001001000101101
0011010101001101000011101101001101001111111111100001111011010011111000100010110000000100110101001111110001000100000000100000111101001110110100100000110101000001111101000001000101001101010011111101
0100111011000011111111100001000100000001000011010100101101001101111011100000111000111111000001000000001111001101001001000010111011011110110001000011001100100010001100110001000011111110110100011101
1101010001011101111101000011000100000000110011110001010011011110110011111111000000000001000000000100101100001110000000011101010000000001000000010011110100111111111011011110010011110001110011101101
0011111111110001111011100100000100001100000100010001110111101100111011100100111111001101010000111100000111100001001000100100111111100101110011110100000000100011010011100100111100101110010011011101
0010110101010011110011110001000100001111000000010001001100011111001111011110001000000100111000101110001000011011001111110100110111011101001000110001111100101011111100011100110111010011010000101101
1101001000010011010000001111001111100000001111110100010011010011000111010100111111100100001100100011001111000001101100100010110000100001001100100000111111000000111111110010111100101101000100001101
0000001000010100111100011101111000001100110000001111000100000010000011110100000100000011001100101110001111100011001011110010010011111110000100110001110001000011110011000100001011100001001011011101
0001010000010001110100001100010011100100111111001110111011011101001011110101001011100000111111011101111000100001010000000010110000110000010111010101111011010011101111001101010011110001010011001101
1111111111010100111011010000111001001101010000001110000100010001001011111100001100010100001111111110001100010010000000010010001000100100000000110100110111010000001100100011000101000000000111001101
1110001000010011110100110001000100011011010000000011010001000011110010110000111100110000010010111101000100010011001100000010101101001100001100100100111111001110001111000100001011001110000000011101
1100000011001100001011100000010011101101000111000000000111100000110101000000111000011100001000110100001101011110111000100010001000100010001100011101001111010011001000111111111001001111001111001101
0010111100110011111000100100111100110011010001000000110001001111001100101100111101001110000000011100000100001111001011000010111100111100101100100010000011110011111111010000001000111100110000111101
0000111100110100010011111111000111011111001100110100001011010001110011010001000111100100001100101100000000000011111100000100010001011111010011111101111001001110000100000010110011011101110111111101
0001110000101111111111111111000101011110000100001110111000010010111011101100110111100011111011000010000100110000001011100001001000100000001011100000010011000001110111000101110000100010110100001101
1101000100000000110111001100010100111110010011111101111000111110000000000011001111110000001100100100110000001110010000001100001011000010111000110000111001000011001000111111111111001100111100001101
0101001000110000000000101100111100100011101100011101110000110011010000011101111100101111010001000011111111011111110000010011001000011110010001000000000000111110010011001011111100100010000101001101
1111001011010100110000000100001111010010010011110101110100010001110000000010000111000100000100100000001100111100010001001100000011100010000111010011110111000011111111100000001011110000010000001101
0001110011010010111011011100111011011110010011110000000111001100001001000010111100100011000011111110111000000010000111111110010000011100000011000011110011110010001000010011111000111110001100111101
0001001010110000001011010011111011010100001100001110000000001111010000111101000111101101000011011111010000010011110111001100110101000010010000010010001100111110000000100001111001001101110000011101
0011001100001011010011111111001100010001010000111011001111010001001000010100110100111101010011001111001100100000000000110000110011100010001000110001010011000011010011001110110011110100111011101101
0100001000100011001100110011110000010000000111011101001101001110000101001101111001000001110000010000001000011101001100001110000011110101110111000001000001011110000111000011110100011100110000111101
0011111100110011001111100011010000110010000100110100111111001111001100100100111111011100000011111111110100010011001011110010001000010100000111111111110101001101000101000100001000010001111100111101
0001110000111110000000100001001011111100110001001101000100011110001111001101000100010100110001011101001011000010110101000011000011000011101111100100110100111110001000010011000011100001001000011101
0100110100001110001100011110000011101101010111011111000111010010110100001110010111011111001111101100111000001111001111111111001000111101110111100100110111011111110101001101010011011100111011001101
1101111000110010000111000010110101000100111100111101001111101100111100100001010011101111001000000011111000100010110111111101000000101110111111111100010000101101000000100000001011001110000000011101
0000110011010011001101000001010001001100111000010001000011010100000000111101110101000010110011010001110011011111111011101111010000110100000000001101111000011110001111000011111011101101111100111101
1110110011011110000000110010110000011101110001001110001111110011001000111110010000000000111100100000001000110001000111001101000000000010001100010011111000010011110011000000010000100100001000111101
1110001000000100110011110010111111101011001011101110110111001110001011010010010100101101111100101101101101000000001000110100110100111111000011001101110011000001110000010010110000001101000101001101
1100111000100011111100110100001011101110010000101101001011011111111101001111110000100000001000101100111100100000010000111100110000101110111110110100110111110011000111100001111011100000110001001101
1110001011011101000100100001110001011110001111001110111011110011110011100100001011001100000000100011111100010100110000001111101100000001001111110100001100010001010011000010111011001110000011101101
0011000011010000101111001100001100110000000001001110110000111101010000100000110111011110110000011100000011001101111100110000110000000100000000110000010000000010000100001100111000001101010011011101
0100000111111111000011010001000000001110110100010011000011110100110011101110010000110100110001001100001011110010110100100001111001010100001000110000010010111111000000001110001100011100000100111101
1101001100001110110111000001000011100010110011010001110011001100111111110001010011101100001101000001001011001110110000101110110001000000010011101100000111111100111011100010000011011111000000001101
0000000100000000111011011111010001001110101100111101001000100010000000101101110000001111000100101111110100100011010000101111000111110010110111101100000100110100000100111110000100010100111100101101
1100000011110000110011101111010011110000001100101100001101000010111100100011001000101110000000011110110111101100010011001111111000000000000011110011110001000100010000010100001011001101110100011101
1101001011011111000000110000111111000001010000001110110001010000010011010001010000010001000100011101111100011110110001001100111000010100111000110000110011011100001101000011000100010101001000001101
1110000011100001001101001100000001000001111101000001001100010010111000001101111100011101110111010011110001000000010011000000111111111101000000100011010001000100000111100100001100101111000101001101
1111110100000010110111011100111000000000000011011110110001001011111111110011010011010010000100001100111100001110110100111111001110110010000111011011110011000100110100000100111011110100110011101101
1111000010111110010000111101111111111100000011001110010011101111111000100000001100010011000000111110000000100010111011100010000100110011000111101110001100100101101100110010001000011110110111111101
1011010101001100001000110011111000010000001011011110000111100010110011101111010011110010000100001011000000010100001100100100110100010010111111101110000111001100000111111111001011100010001011011101
1100110000110001111000100001111000001111110101000100110100111111010011111101111000110100010011110010001100010000000100111110110100001100001100001100001111110000111111100000000100110011001111011101
1100111100110000110000000100111010110011111111011011001011010011000100011110000111100100111000001101111000011111010111001101110011100000111011110100001000011101101100000010110111000000001000101101
1100001001010100111100101100111011001100111000111111110111000001111100111110110111011111111000110100110100110011000100011100001111010001001011110011010011001111001100010011001011000100010000001101
0000111100000011000111100100111100011101010001001100001100101100000100000011010111101110001000000011010011010011000100101011110000100011110011011100111100011100000000101100001100010001110111001101
0010110000100011001011111111010000100101001100010010110000001111111001000010010000001101111000101011111011110100110011101100001000001110001101001101001001001110111100001110110100110100000011001101
1100110100110010110011011110000100111101111111100011110011111110000111110001000000101100110100011111110011000000111111100100000111010001000001000011110011100011110100101111010000001101001001001101
1100000100110001111100011110001011111100001111100000000011010001110111100011000111001110110111000000000111110010000111011111110011000010110111001111001011010010111110111110000001010100000101011101
0010000100010011110000000010000100010100001000000000111000010011000100000001110111100011110000110000111100101101110101011101001101000011101100111111000000100001111011100010001011110000110100101101
1110000011111111111011100001110101011011010011000010000111101101111111111110110111001111111000111110000111110000001100110100010011010100000111110011000011110011000011001100000000100010001101001101
0010111000000100110000001100000101010000110111100011000100000010000000001110111111001110101111111110001101000100001000001111110000001111000011010000110011010011110000010000000111001111110001001101
0010010100001110110100110011010011100011010000111110101111011100111111111100010000100100010011110001110111101110001011110001111100101101000011010010111000110010000000111101110000001100001011011101
0100110100100100110100000100111100110100110000100011001111101111111000101100000011100001001101001111111000111100001100000011001111010001000011000010000000101111111100101100000100000010001100111101
1101111101000000001000110000111000000011000100001111111011010001000011000000110100110000110011010000001111001111000100000010110100010001111000011100111100011110010000110010111000000000000010111101
1100110111001111000100011100111000111110110011011110110100011110001000111111000100111100110111010011111011100010001101000001000011101100111100110010010000100011000100000011001011100100001011001101
0011111111110000110011000011001100110000110000100001000000010011111000101100010111110010001101001101010101000000000101000001111000001101010011110000000011110100000100010010000100010100110000001101
0000111111110001110111001100001000001101010000111100111001010000000000010100110000100001111111010001111000011101111110110000110011000010110000111101001000100100111111010001000111100000111001001101
0000111111110001010011111110110001001111110111001111010001000010111000011011000111100000010011101111010000010011000100010100111100010001110000011111111001001101001100111100111100101111110011101101
1110000011110011000000110010111000011101001111001100010011001011000011001111110111110000111011100011010000011101000000001110111000001111000111000000110100110011110001000000110100000001111011011101
0010001000001101111000010010010011010001000111110001111111000100000000110100110000011101000011111100001101000101111011100001001011011100111000101110000000001100010000111111001011111100000111001101
0000110000000101000100110100000011111110111100010001111000100011001011000010001100011111111011111101010011100001000101001111000100110001111000000100001000000100000000000010000011111100111000001101
1111010011010100111100110000010011001111111100000000001100110001110011011100000011110010000111110011110011000011110000110100001000101110110011110010001000101110111000011110001111101101000111101101
0010111010111110001000011100001100111100001000101110110000001111001011010000111001000000001111101100001000110011110100001100110011100011001000011100001000000010010011100001000100000001000011001101
0010010011001110111011110010000100011111001111011100110011010000010011001101000011001100111000110000111100011111001100100011001100101100111011001101000000110001001000000000000111110000000111001101
0010111111001110111100001100111011100000111110111110110011111110110001001100111100110001000111011100000111010011111100101110110011111101000011101101000101011111110000011011111100110001000100001101
0001110011100011111100001111001100100011110000001111001100110011111000001110001111110001110011001110111111000100111111010100110000011100111000111111001100110010001111101111010011110010001111111101
0010111001000001000011010001111011001111000101000101000011100000110011101110110011000001111111110011010000111101010011110001010000110000111011000001001101001100001000000000111000100011001000001101
0010000011100100001100000100010000110010000111000001111001000010101100100100111100111101110111110100111101000001111011100010111100110000111100000011001100110010000101000010010100100000001111111101
1100001011101111010100000100000011110100000011111101000000000001111000100011110000110001110000110011111000100000000100110000001111110010110100000010010000010100001111111111001000010001110000011101
0100110011111110001011101100110011100010001100001101010111100010111001000010110011010100001000011100010011011101111000100000110000111111001000011111001001000000000000011100000111010010111100011101
0011110011111110110011111100010000010011001100101110001011101110000011001100111001000010101100100100110000100100111100101101010011000001000011010011001100101110000111000001001011000010001100101101
0011010000000010110001000001110100110010000110111100001000010001010111010011110001001110001101001111110011000000110100110001110111100100001101001101001000111100000011000100110000011101010000011101
0101110000000100010000100000010011111111000111111101000111100001000001001111111011110000111101001111001101001101001111111111111101000001111100100000000011110011001100001111110111000000000000101101
1111110101000100110000110000000011000100111011000100110000101101111011010001110100100011110011101111110000010011101100111110001111100100010001000100111000100011010001001101111100010100000011111101
0011001100001101001011100000001111100001111010110001111100101101110101000011111011010001111000011110000000001100001000100010000100111110111011100000001001000000110111100000010000000011110001001101
1100001011110101001000100100110100100010010010110011001111011101000011110100110000101111000111010100000101001100110000001110001111000100111000001100110001001101000001011011111111100011110111101101
0001001100001111111101001110000111111110111000000011110000101110110000100000111111110001001100101111111100101111001000001100110011110001110000000100000111000100000111100000000000001111110111001101
1110110011001111001011000000010001000000010000011100000111101101001000101101001100010010010000001101010001000101110000110011110001001110000100100100111111111101001111111111001111000100001011111101
1100101100101110111110111100000111100000001000110001001001000101001111111100001001001101001000000011001111010000110001000010110101001100111011011110000100001101111000110100110100111111000011011101
0000111111011111111111010100110111101111110011010010111111110011001110111100111100111100001011001111000000000001111100110010000011011101001001001111001000010001000111110100111111010011010110111101
1101000101001111110100110100001011110011000000101100001100100010110011100100000111111111111011101101111111101111111011101111110100000000000011001101111000010011111100110001001100010001110111101101
0001001100100000010100000011110111000001110011110001110000100000001100010101001011001100111101001101111011011101110100110001001001010010110000010001110000101101111011000001010011010001010000101101
1110111111110101110000011101000001000000110110110000111000111111000100111110010011111101111111000000110011000011110100010100001100110011010001001100001100111111001111100100110111110001110111101101
0001001100110100000000011111000011111110110000110000110001001100000001001101110100000100101100101101001100001111000011100100111001001111000100100011111000011011010000001110000100010100000011111101
0001000011110011110011100010010000001111010011000011001000011100001111010001010000110011110100010100110000100011111100001111000011000010110101001110111100010010010000111110000100001011001111011101
1110110000011110000000100011111000000010110111101111001111100100000000010000110000010100111100010011110101000100110100010011110111101101000011100010110100100101001011110011001000001100111011001101
0000110100101101111000101111000111000011110000010010111111110101111100011110010011011100111111000100001100101100001011100011111100101110111101000100001111100101110000000100001111100000000011111101
1100110001000010001011111111010000110010001101000010110100111101111111111101001000100011000111000100101100010101001000011110000011101100000111010001111000000011111011010001001000000100001111001101
1101111101000001001011001100111100001110000011000000111011000100010001001100000000100100000111000001000011011100001000110001001011111100110100001100111100111111111111000100001000011110111111101101
0100111100000011110101000011001111010010001100100100001111111110111111111100010111110100110111000001001011010000000101001101111000101111110011001110111100101100101100001111010011101110101111101101
0000110011110011010000110100000011001101010000001110001101000100010011010011111100110100000001000000110100011100000000111011001000000010111100100001000100010000001000011111110111111100000111101101
0010111110110011010000100010111011010001001100111111001011110001010000000010000011000011110011110011110100110100010000110100111000010100001000010010000001000011000100100000010011110010010000101101
1111111101000011001011000000110100111110001111010001110001001101111111001101010001001110110100010011110100110000000001001101111111100000010000101101111101000000001111000000111011010011000000101101
0001001000000000000000000000010100101100000001000000110111100100010001000011110001011110110000111100010001000010111000110001110011010100001011011111000011111110000000000001001111010100110100111101
1110001000100010110010110000110100110010000000110011010011000100110100011100000001001101111000101100111100000100001101000000010000000010001011110001010000010011001100001110111001000000010000111101
1110000000001101110111010100110100000100001101011101000001000001001011110001000000011100111100011100110100100010110000000001000100000011000011100100110111011111001000100100110011110001000011111101
0001001100001110110000111101111111100010001100100010000111001110111000010001110000000011001000001111110000000011001000100100110100110011111011000001111111101101110011010010010011000011110000101101
0100111000100000110100010100110111010010111011001111000000001101010001011100111100111100000100000100000011010001000100101100111011101101111111000000001100000100000011000001110011100000111111011101
0010001011000001110100101101001001001100010011110011000000100001000000001110000011011111111111000011110100010011110011101110010011010001111111111110010011010100001111010001000011101100110100101101
0000110000110000001100110001010011111101111000011100000111000001000100010011000100000101110111111111110011101011111000011110001100010001001111110001010101001110001011010010000001001100111100001101
1111000000111110111100111111111011100100001001000100000100100010001011111111001011111101001011000000001100000100000011011110110100001100110011010000111100011110000111010100111111010001111100011101
1101111111110010000100110010001111001110000011111111000000000011010000001100000101011100000011011100010011111101001001000001000100100010001000101111110100110100110111111111010111011100000000111101
1111001011000001000000100011110111011110110001000010010011011101110000010100110111010100111100100100111100000010110000000010000011111101001111110001000011011100001100000100000001000100000000111101
0100000001000001111100111111010000111100110101001101010011100011111101000010010011100000111001001111000000100100101111011100000111111101001101001100110111000010000100010000110111100011000111001101
1100110101001111001011100100111001000001111000101111110011110000111011111101110110110000010011011110000011110000000100100011110111100100001100011100001000110000000100000010001111100100111010111101
0100110011100100001101000011010000011110000101000010110011000010000101000100111011110001010000000011001111111101000101001110101111101101000100100001001111000100001100010000111001000001000111101101
0100110000011011000011000100000001001100001000001111111111010011010011011100000111001101000101000010110110111110111111100011010011010011001100000101010011100011010011001110000101000100110000101101
1101001011100000111011111101001000101110111001000100111101001100010001001101111111001101110011001101110100100001010000110000111010111100001100001110000101000001001000111100001001001100000111101101
1110110011000010110000101100111000110001010011011101001111010010010000100000111000000011110011110010000100010011000111111110110011111101111001000010111111100100110000111100000100110011001011111101
0011111101001101001111110011010001001100001000101110110000010010001101000011001000010001001011110011110101000010010011001111000100100000010011011100000100001111000111110010001101001111001100101101
1111110001000001111100001100111100110011001101001101000000010101111011000100000111111101110000000100010011100000110111111100000111100010110001001011110111010001001000010101010011001101000011001101
0000111011000100001011110100001011000100111000010001000011101111000100101110110100010001010001000001110011101100010000101111001100110001110000110010110011101100110101000100000011110010010000001101
0010111100000001001101000000000011001100001111000010010011100100001111111100111100011110001000100001000000111100010001001110001011101111010011110011110011111111001011101110000111111101000100011101
1110010100010000111101000011110000010011001111011101001011000101111111011100111111111100110001000011001011111011000100010011111001000000110111111101001100100010111000010010001100101100000011101101
0011110100111110000111110100110100000011110011110011001111110010110000101100111011010100110011100000111011101110110100100001111011000011001000010011111000100100110111101111001011010010110011011101
1100111111100100110000011101010011001100111011101111001000110100110111101011111100000100000111011111111100001101001100000100110011000001001101001111000000001011111011101111001000111101001111101101
0001110111011110010011011111111101010000111000000000001011010010110100111100010000110001110101010010111011010000111000101101000011100010001011110000111111010011000011110001110111010000110100011101
1011000000001100110011000100001100100100000001000000000011010011010000010000110101000000000000110000110001001100111100111100110100000011000011111100111000110001110000110100000000111100110111111101
0001111111111100111000101111000100000011110001001100111001000100111011010001010000001111001001000100000111001100110000010000111000100000111000000010000011001101001000110100000000000100010011101101
0011111100010000000000101110010011101110110100100010110101001111111011100001110011110011111011001110010001000010110100101101110100110101111101001110110111011111000011000000111100110011110000111101
0001001011111111111101011101111101000010001011101111001100000000111011011101111100000000001011000100001100010100111110111111000101000011001011000100010000011101000001001110110001001111010001001101
0000110000011110001111000001001011000000111100110001010000111101010000100001010011000000000111000011000100100000001100000100111111101110010000011101010100010001010000001101000000010000010000111101
0100010000011110000011001101001000010000110100100000111100010001001100000001111111001101111001001110001000100011001011011111010011001100110011011101111000100000000000100100110101001101001000111101
1111001111110010110011010011111111100000111101000010110111110001001000010010110000110100010000110011010000011111001100001110111011011110001111100000111011011101110100000011010111010001110111011101
1101111100100011110011100001111000101110000111101101000111001111111100100010000111011100110111000010001011011101110000100100111101001111110011101011010000010001110111100000110001011100110001001101
0000000111111110111011010100010011110011000000001111001011011110111000111111110101001101001111111100110101000010110101011110111111101101110000000011001011110011000001000100001100110001001100001101
0100111011100011110100110100111001000001001011100011001001001111110100001100001111010001111100000000110100010001110101000001101111001111111111010000101101001101111111100100111111111111000111001101
0100111011101101001010110100111001000010110111000000110100110100000111110100000000011100110001000000110101010001010000110010010100001100111001001101111100010100000001000000001111001110000100111101
0010111111101100110011011011010011111100000100110011001011011110000100110001000000011111001100001100001111111101000111101110001001000000000101001011110011011101110100000101000011101100110000001101
1111000111000010110011000001001111011100001111011111001100001111010011000010000100011101110100101101000011101101110100111101010001001110000111110101000000110001110100011110001111011111110100101101
1100010011010100111000101111110100001111001001000001001011111101111100100000110100001111111100100010000011010000111100111101000111010100010000000011111000100010001111110011010011101101000100001101
1111001100001110001000101100110000111011111001000100111001001100110111100100010001000011110111101011010011001101001100011111110101000001001100100010110111100100001100111100110000110000001000101101
1111001000100100111111001100000100111101110000111100111100110010000000100011010011111110111100001111110011001100111000100100110100100010001001001111110111001111010000101100010011010100000111111101
0001010000110100110100001101001000011101010000110000111011011100111100110001110000101110001111010011001011000011000011100000110000100000000111000001001100010100111111001101000000100011001011111101
1101111100011111000100000011001000110010001011010001111111010100000011010000000100010011111111001111110011101111000011010100010011001100001111110100000000110000000001000010001111100000010011011101
1111001111101110000000000010110001001111001101000011000100011111110001010010101100101100111011100011110000011100110100011111111000010011110100001100111100100011000100011111110011001110010000111101
0001111011011100000100000000111100011101000011010011110011010011111001000000110011100100110101000011110111011110010001000100110001000010010000100010000111100000001011000001000011100001000000111101
0011111011110011111000011101001011000011111001000011000011110010111011000001111011010100111011111110111111001110000100100010110111011100111111000000000100111111010011001110010011111101010011011101
1100000011101101110000010000111011010010000011110011111000100010010000011110001111010001111011001111001000010011001011100000111100100011001101000010110011011111110000011100111000100001111111101101
0001000100110101111011111110111100111100010011110001110100011111111111011100111000100010110101001110111100111110000111100010111111100100110011100011111111010100111100001101010001000011111001001101
0010000011101111111101000000010000101101111000000001110100100100001000011111111000000011111010111100110011010001111100100010001000000011110111001111001000100100001011101101111100111111111111001101
1100110011000011111111001111001011111110001011111110001100101111111111010100110011101100010001001100111110111111000111101111001011000001001101000001000000111111001011011110110011010000110010111101
0010010000110011110101000000010011101111010011001101001011010011111100010000000011111011001100101110110001000001101100110011000100110100010011000011010011111101110000111111001100101110010011011101
0001001000101100111111001101000011111111001001001100111000000010110011101101010000110001001000001110010001000000001101001111110110110001110100011111010011000001001000101100111111001110000011001101
1100010000111111110101000100111111011111110011011100000100001101111111011101110101011111001011001111010000000000110100101101000001000001111111100001001011000011010000011110010001001100111100011101
1101110111001111001100010000101100101111001100001111010011011110111111101101111011110000010000100000000100100100111111010001111011100100111101000001111011000000000111010000111000001100000011001101
0000000000100001110011000000010011101110000000110001110000010001010011000000010001000001111000001101000000010010000100101111111100010000001111110100010000100100000100100100000100011100111011101101
0001001100010000000111110011001000000001111000100001001001000000001100010010111000000001000111100011001111000010111100000001001100010001110011010011000111110010000000101101010001000001111000011101
0010001000101111110100010000001011010011000001000100111000011101110011011101001100100000110100000000000011000011110001000101110101001111111011010101110111111111001011101110000111000000111011111101
1011111001001110000011111110010011100101001111001011000100001110000011001101000011010000000110110010110001000100001000011101000000001100111001001101001100100000000111111110001111010010000000111101
1110111000110100000100110100001011110100001001001110110000010011001100010001111100111110111111111100111111000000111101001110111101010100111111001110010111101100001101001100111100110010110011011101
1100111001000001110000010011111111111110001111111110010011001100000000110010111001001101101111000000110011010000010011011100010000101111110100011100110111010100111011000100001111000000001000111101
0011110000111110010011101100010101000011010100110101001011011110010100110010001000101110000100100101001101000000000100100001111011110100000100100010110001001011110111100011010011010000001100111101
1101111011010001001101000011110011110100110001010000110000111111001111110001111100000101001011001100001011110001000100100000001000010010110000000001111000111110001011110000111100101111110000011101
0011110100101101000101001101000100001110000100100100001101001100111100001101010011001100110111110101110100001100110100010100000000011101010000001111001011101111110100110001111100010010111011011101
0011000000001100000111000000001000000011000010110010110111100011110111011111001111101100001000011110111100010100010011111110000000010010111000110001000111011100001000110001000011110011001111001101
0010001011101110000011000010110000110000001111101100111000101110111000000011110011110010111100000100010000000100001100001101001100100010110111111110001100110101000000111111110011110010001001001101
0100001111100010000100000000110100110010110111000100001111010001010000100010000011100010010000011110111011101101000111010001000000010000111011111111111011011111010000000000001000111110010000011101
1110110000001100111011111110111000000001110111111100001111110001001111110000001101000010111100111111111111100001000100000100110000101110010100100000110000101101001100011110010000111100111111001101
1110000011010011000101001110110011111100111011101110010000011101110100000011000000010001000001000001110111000000000000011110000000110001001011110011001000101111001001000001010000100001001111111101
1111110000010001000101001011010000000101001100101100111000001111110100011111110011011110110111010000000100111101110000000000111111101111110111001101010011100100000111100011000000110011010011101101
1111110100101110001100010011110101000000000111011111111000000010000000000011000000101110000101001111110111111100101100101110010000000011001001011111001111111100000101001110111000010001001100011101
1110010011010011110001000010110100110010000111011110111111110011110101000001111100100000010011100100101100100000010001000100010011110001000100110100111100101101010100000100001011000100000111101101
0000111111010100110100010011010000010001001100000000111100110001001100110011010001000100110000100000111000110001000000101111000001001101111000000011001000101100111000001111010000001101001001001101
0000000111000011000100110010001001001111001100010010111011100010111001000011110100100001010001001111010011001111110111110000111111110011101111011110000011011110000111111110001000110000110011011101
0000001000110001111011010100000111000010110011000011000100010000001011010010110111110001111111001100001111010000110000010000111011010010110100010000000000111110111100010100000111011101010011011101
0011111000100010110011100000000101001101110111111100000100010011001011100001111100000001111000101100001111110001111011100011000111110001000000001100010000100001111101000100111100101111000010111101
0010111000110100110101001100001001000101111011010001010111110011001000000010111011001101110100000101000100110010111111100000110100110001001011011111111000000100000111000100110000100011110011111101
1110000000000010111011010010111111011110110011101100111111010000001000110000111100110010010001000000000011001100010111010010110011111110110111011100001111010001001111010101111111110011000111101101
1111000111100001111000001110010000011111110011111100111001000010000111000000010011000001110111010010000100000100110110111110110011110001111111000011000000000001110111101011111000110001111011011101
0011000101000100110011101111111101000001001011000100001000111110001000001110000101001100110011001011001100101100110111110001111011010001000011001111000101000001110111111111001000100011010000101101
1101110111001111110100010000001111001101111111110010110011011100010000100000000100111101001011000001000111000010001111011100110000010001010011111101101100101100111011100001000100011100000011111101
0010111011111110001000111101010011100010001111110011000111010000000011111101111000010010110111111110111000000010110000100011001000111110010011000100110011000100110111000100111100000001111100001101
0001000111001110111000000010111111001110010011000100110111011100111011010100110011010100111111010010110000001100000001001111001111111100111000101110110001001101001011001110110001000001001100111101
1111010011001100111100100011110111100010111101001111010000010000000000001110111111110010110100110001111111111100111000011111010000100011010011110001111000000011000100100010000111110000110000001101
0010000100001100001100110010000111110011001011001111111111100100001011010010000000011100001100010011110111111100111000110000110111010001110011100011110100010010111000100100111011010010111000111101
1110001101000001001001000011000001001101001111011110111011100100111011000000111000101111111011100011000100000011111011000011001011111100111100010001110001000001110011110100001111010001000100001101
0101010000001101110100001101010011100010111111011101010100001110001010110100010000100011001011100001001111011111110111010011001111111110000011101101001100001100111011110010111011001101010000011101
1101111111000101111100000010001000110001000001000011010011110011000011011100001001010001110100111110001011001111001100111111010011101101111000000001110011011101111100110000111111100010001100011101
0000110011101111110011010001110100100100000011001101111000110100001001001110001100111111111011010000010111101101110011100010001011101101110111001111000000000001001000011011110011110001110000101101
1100111111011111001000011110110000111100001000001100110111010000111011010000111100110101111100101101111011110011111111100010001000011111000111100010001111100101110111010000001011011101000011011101
1110111000011111001011011110000011011100001101000010110011110010111011001100000011100010111011101111111100111110110111101110001000110011001011110011110100001110010000000011110011111110110000011101
0100110101000000010000000101010011100010001111001110111111101110110111010101110011010100000011111100101100000001010011000011001111000100000100010100000011011111000000110011110001001101010100011101
0000010000101101001011001111110000000001110011101111110111011111111100111110001000010011110000110010111000000000110111010100111011111101000111110000001011110001010000000000000011001111001111001101
0010001100000011110000000100001100100011000000111110000100010000110100000010111100100010111111010011110100111111001000001100001001000010001000111100111100110010000011010100000111110100111100111101
0010001111011100000111011101111000101110110100110000000000100001110100011111010000000100110111000010110011101101000011010001111011100011000011000101010000101110110111000011010011111111110100111101
0000000011001100001000001101001000000011000111110010000100010001111101001110111011110010110000001110110000010101110111111100110000111101001101000100001111101110000101000000111011001101110000011101
0011110000110011110000011111010100101101000100100100111100001111000000110100001000011111110011100011110100001111000011010010001100001110000100111110110100101110001000000001000011010100001000111101
1111111011110100110001001111110111010100000011010011001000011110111000000011010011110010101100011110111000011110111111001100001000100100000011010100000100000001001100100010000100010100111011101101
0011110011000010111111110000000100011101110100001101000101001101001100101111001111110011111000111101000101000000000011001110000100100000000101000011111111001011111111011111110001000010110100001101
1100111111110100010000010011110000100100000001000010111100100001001011000101000000000001110011110100110101000000000000100100111011110100110111010100010011100100110111110011101100100001010111101101
1101111101000011111011000001010001001111000011000010001100100000010000110000110011010011110000110011000100011100111110110100000000110100111000010010110011111100001111011100110110110011000011001101
1100110000101110110011110000110111110011000011110100110100001100110011100010000011000011111011001111000011110011111100001110000000010001111110110010001000100000110101000011010000001100001101001101
0011000100111110110000111111110111110010010011011100110000000001000011000011111100001100000101001110111011010010001100100001111000101100110111000001110111001110111011001111010000010101110111111101
0001110111001110111111000100000100101110001100000000111011010000001011000000001000001101001100000100000111010010001101011100110100100010110101000010111111111101001011001111000000010000010001001101
0100001100110100111100100011111111100011110000101110000001000011000110110100110100000010110011100001001100000100010001000001010011010011001011111110111011110100010011010011001111111100000100111101
1100001101001111001011000100001100001101110111010001111011001110110011011100001000100000111011010100110101001110000000010010010001000011010011001111111111101101111011011101001100011110000111001101
1100111101001110111000100001111100000010000011111111110111101110001101000010111100111111000000111011010011100001110100100010111011101101010000011011110111111111110000110100110001000001010001001101
1110110111101111010100011101000111110001001100000100000001001101000100011011000000001100110000000100111000110001111000101101001011101111001101001101000001001100111100111111001000111110111000001101
0000001100001100111111000011000111011111110000100010110011101110000101000011111100010011001001010000001011101110001100101101010000001100111000110011110000010000000011100011000101001111001100001101
0011000011101100110000101110010011100010000001001100110111011111000000110100111000100010010011101100010011100100001010111100001000010011010011101100111011101100111100101110111100101101000001001101
0001001011001100000011111100111011101101000000101110110000010010010111111110000000101111000100100001000001000010001001000100001100111111111011010000110001000000110111011101000011001110111111001101
0010001011111111001100101110000011001101001101000001010000000100010011010000110111000011000111110011111100101100111100001101000000010001001101011100111001000000110111111111111111000000111100111101
1110000100010001111111000010111000110011001001000000000000001110000000111110111011101110000111110000000011001111000100100001000111001111111100100010001111100100111011010100001000000011001101001101
0001000100011110001100000001111100011101110100101110000111010010000100100000111100011110000001000010001100001110000011001110111100100100001100111110110000111100010000000011000011110001110000111101
0101001011110000000001001100010000000100010101001100111111111110000000010100001010111111001100101110110111101110000100001101111011001101110011101101110000100000000011000010001100100001111101001101
1100111011100010000111011100000011011111010000010011110000101100000100100001000000010011110011001100000111010000111101000011110011100011111001000100111000000010111111001101001111000010010000101101
0101111101000001111001011110010001000011110000010011010011110000110111100010001011000100001100110011110100111100110100101110111101000011001100111111000011010011111100100001010001001101010000111101
1101110100000000001111011111001100010000010011010000001100001111111011010011111101001111010000001100010011100100110000000010010000011101001100110010111111100011000000011101110111100100111011001101
1111001001000001110111011101111101000100000101000100010000001110001100010001111100011111111011010100000111100001111111100001000000111101111100111100001000111110001111010000110001000001001100011101
0011000111100011001000000001000100011110110101000011111011011101111000011101111000010011110111100001000100010101000111000100000000000000111000100010000100011110111011110011001100010010001011011101
0100110111100100000000110011110111110001111100110000111000110011110100001110111011111100111100010001001011101110000011111100111000101111001111011111111100101011001011110010000100110000001011001101
0010010000110100001011110000110000001111111001001110111000111110111100100011001100000000001111010100000000101110110000101110110000100000111000010000000100011101000100010000010011011110110001001101
0000000011010001010000110010111001000010000000110011000000110010111101001110000111101111001000010001110000010001111000101101110011000100111111101110001100010101001100001011000100011101110111111101
0011111100011101000100110001101101001111110011001101110100101110000111000011001111000000110011000000001000100011111001000011000100000011001100111110001111110001000100101100000101001110010000111101
0100110011110100001101000001001111101101111011110000000111000000001100110011110100011101010011101100000000110011111111100001001111110001010000100000110000100001010000011110111011011100000100111101
1111111011111110001111001111001111010011010001000011000011010100001111100001110011110010000100011100000000001111110001001100110001010001110000011100000000010100000100101100010011111100001011101101
1101010000100010111110111011001100100010110000000100000111010010111111101110110100001111111001000010001011000001110000010000000111110001001000110101111111111111111000010011110111100000001111001101
1100001011101101000000101100000001000001001001000001110111011110000011011101110001001110001100101110001000000001110111010010001111101101010000011101001001010100001100001111110100010000110101001101
1110010011011110110000101101110100011110010011000100000000000010001100111111001111011110000011011111010011000010110000000000111100100001111111001100110011011111010000111111000111110100110100001101
1100001101000010110111010000000100000001000111001101111100010100000111011111001011010000110011010100111000011110001011000010111001000100000011111111110011001100000111000100110011110001110000011101
0100000000000100001101011111000111100100000000010000000111001100000000001111001100010000001000111110110100100011001111110011110100101100000101001111000001001100001000100000111011100011111000001101
0100010001000100111011001111010000100010001100100001000001000001110100001101001100111110000111101111111111010010110001011110000011110000001000000011111001011100110000110000111011001101001001001101
0011111011100000001000001100111011111111110100110100111111110000000011011101000000011100010000110010000011010010001101000001110000000001000000001100111100101100111000000100110001001100111000111101
1110110100100100000101000000110101010100110100101110000011000001000000111111111011111110010000111101001111000010110100110001001100000011010000001111110000111110000111001100110100100011010011111101
1100110000111100001000000010111111011100010000100000000101000010110000000100110001001101110111001101000101000011111011001111001000011101001100111110110000010100001111110001001011100000110011111101
1100001010110010001100101101000111000001010000000001110111101110111101000100110111110000010011101101111100011110001111011110010011010011000111010001001001000000000100101110000101000000111011101101
1101000111000101000101001100001100010010001000011100001001000011110001011110000111000000000100011111001111011100010001000011000111111100000100100000010011101100010011000011111111110000110001001101
0000010000000001000000010001110000011110001011000100110111101111101100100000111111101100110001011100000011110001000011011110101111010000010001000001001000100011001111110001110011001110110011011101
0001110111101101000000010001110111100011001000000010110101000011010000010100110000111111110000100011001100011100111111001110001000010011001011101100110001000001111011001100001000001110010011101101
0000010000100011000010111100001001011111000111100010110001001101010000110100111000101100010000000011111000111101001000101101110000010010010000100100000111101111110100000011010011000001000001001101
1100111000100000000011011101001100000001101100110100010000000010110011110100010111010000001100000010000000110001111111000001001000001101001000011100010000111110000111111111001100110000111100011101
0100110111001100110011010100110000101110110111101101001100000001000000010000000011001110001100100010110000011011001011000001001101000100001100010001001111101101111000110010111011110100001000011101
1110001111101110110100111100000100101011111011011111001111000001000100101111110000110010001111111100101111011110111101000011110111010100110000001101101101010000000000101100001011000101111000111101
0000001110111111010000011110110101000011101111000010001111010000000000111100010000100001000101000001000111110010000101001110001011100011010011011111000011010100001011000100010000000100111100001101
1110110111110000110000100000000011100100001100100001111011100001001000100010001111100100111001001100010011101110000100101111110000100100110111101100010011010010001100100011000011100001110001001101
1100010000010000110111001111000100011100111101001110010100011110010011100001001111110011111000000000111000100000000100101111001011001110111000110000110001000011000000001100111101001110010000111101
0000000101000001001100110000101111011111001111110001111000000001101100111100110101000000000011100010111111100001000011101101111000011110110100010001001011000001001100001011000101001011110010111101
0000000011011011001111100000111111011101110111000010000100001110110111011101001100110010111111110010001000000011001100000010000100011110000111010010001110110000000100100010001000011110000100111101
1111110000101101110111101111110011110000001111101100001111111100110011101100111001000011010011101110111110111101111000000000001011001101110000110100110111010100001000101101111000100000001011111101
0001001011011111110111110010010111111101010100000011010011110000000000101110000111101101110111111100110100101101110011100011110001000100111000000001111111010001001100100000001100001100110100111101
1100111101000010001100110000000111000010001100111101001111000011001001001111110100001110111100001100110011000001000100110010001011011110000101000001010011110010111111101111010011010100001100011101
0011110111001110111011010100001001011111000101000010010011100000001111101100111011111100010011101110000000100100001011100001001000100001111100100010001011010010110100100000111100010100110111011101
1110001111100011010000101101110000011111000111100000001000010001111100010100001100010010110011111101001100100000110101001110000011111100000001001111110111101111110000110010001100011101110100001101
1100000100010011010111011111111000110010001100100101000111011110111001000010000111000100111000111110000100000010111100000101000000110000110111101111000001000010010011000011000100111101111011011101
0011110001000001001000111111000100100001111000000011010011001100110111110010111100001110001011001100111011111100010011011111110000001110111000110010001001001101111111000011000101001100000001001101
0100001011000001000011100100001000101101010101001100010011010011001000101101010011101111010011001101000111000011110101001101001111001111010000101111110111100010001111110000010001001111110111111101
0000001011100000111111011110111111011101000111011110001100001111000000000000000000100101111111100100000011111111111001000000111100000011110100000100001011111110111011111111110101001111010001001101
1100111111100001010011100001001100100011001000000011010011100011111111100001111111011111010011011110010011011100010011110011000101010000110011011101000111000100001100000001001100101101110111101101
1100000000010000000000101110000011101100000100111100110000000100010011101100010101001100010000001110111111011111001111100000111011001110000111100000000011101110110011001100000111001100001011011101
0100110000111011000000110100110100000000111000000000001100110011001111010100110011111100111011011111010011100000110111001111010100001011111100100010000100100011111100110011110111110001001101001101
1110111011100001111111010100010011101100000011100010110011001100111011100001000111001110001111000000000011010010000100101111111100100100001011011101010000001100000111010010000011001110110100011101
1110111101000001010000101111000111101100111100000001000100011100111011101110010001000001001111110011000011110010001111000000110000111101111100100011110101001110000100010000110011000010001011101101
0001111100011110110000001101110011000001111100100001110111000001001000000000000011100010001100010000111100010010110100110010110101000001001000111110001001001101000000101101010001001111010001001101
0001110011000010101100100011111100101111110011110000110100000010111111100100111000100101000111100010111000011110001000111101001001010011111000010010110001000000000011110000111011010100001111011101
0011001111101111110011100010010011000000110011001100000001000100110100000001110000101101010000010001111000000001110011110001000011001111000100110011110100010100000011111111010011001101010001001101
1101110100001111001011100100001100111110000101001110111011101100000100001110000100100001010000100000110011011111111011011111110100110001111100110011001100111111001100001100110000100100111000011101
0011010001001111000000111101000111001100110000101110001100111110000011000010001000111110000100111101110011001110110100010001110000111110000111111100000111001011110011111100001111101110000111011101
0000111000011100000000000011001101000001110111010001110111110011110100011110001100111110001111001101001000101100111011011110000000101101110111110010001100011100110000010100001100100000110011101101
1111000000010010000100011101001111101100001000110011111111000000111000100001000001001110110101000000000000000010110101000001001001000001001000100000001100011100001000010010010011110001001011011101
0000111001001111000011100001111001001100001011111110000101000000110100100001111000001110001000111110010100111011000111010000110001001110000000101111110100001110110000011101010011011110001000111101
1111110100100011000000000001001111000011001000001111111100000001111100101100000100011101111011010001001000000001111000101100010000000100110011111100000111111100001011011110000110110010001000101101
0011000111010100001101001101111100001101001111110000110001001101000110110001110000101100111011000000001011010001001000000000111011010001001011010100111111000010111111001110001001001111001111111101
0011001100100001111111101011001100000100110101000101000000000010110001000010001100000100000100000100001111000010000100101110111001000000110011000100111011001111000000001100110101000011000000101101
0010111110110000000001000100001000101101110111001110000011101101010011101110000000101101111101000001111100110011111111101100110000100001110100100100010100101111001000101101111011010011110111011101
1101010011001110111101000011001100110000111101000011001100100101001000000000010111001011111011000010110111010001111000110011111000110011111111100011000000010001111001001100000111100011110100111101
0001001001010100111100011100010011110010000100000010010011110011111000100010111011110011000000010100111000110000010011100000010000101101110011111110111011101111000100110010110000100100111100001101
0001010000001110010011110000000011011101110001000001000000111100001100111111110100011101111000011111110100110010000111100001110000010001010011110001000000010100110000101011110111000100000000111101
0000000100000000001000001100111101000101001011110000111001011111001100110010000101001101001111011100001111101100001011000011111111010000000101000000001111111101110111000010010000011101110111111101
1101001000100010111000111101110011011011111011010010001100101110001000011111110111000001001100010000010001001101000011111100010000111100000100100010010000110000110100001110000011100001111100101101
1110000100111110010011000010111111111101110100000000001111100000111000101110001000110000111100010001001000101101001100110100010011100010000011101111110001000011000100011100000100001111000101001101
1111001111010001110011000000000011010001000001001101000100110000111011010011110100011111000100001100110111111110010000100001110011100011010001000001000000101101111100101100110011010010110000111101
1111111011000010001000011110010000110010110100010001010000001110000101000000001111000011110000010011110000111111000100001111000100010000001101000011110001011110110100000100010000101100010000111101
0000110011110000000000011110111111010011010011000100110100100011111111001110111111001111001000100011110000001101111101000000110000001111110100101110000011110001111011111101111001000000110000011101
0001110000000011110111011101001001001101111011010000101100100011110111010010010001001110000100101011001001001110000101001101111111000010110001001101111100001111000111011101010000100010001111101101
1100110100111110001100101011000000011100110100010000001100100001001100101100111111001101001000011110111011000011000011000010110111001101111111111111000000010010110110110100010011111111101101001101
1110110100010000110011100000001111100100000000100100111000011101001001001110001111111111001000110000000000100000111111100011110011111101111111010011001111101101001011111101000101000000000011011101
1101001100100000000001010000110101000100111111100100111111110000110100011111110111110011110111011110001100001111010011100000110111001100010000000000000111000000010000011101110111000011111100101101
0001111100101100001000110000000000000010111010110011001000111101001111001110001000100011000100010011001100101101110100100011001111001101000001011101111100100010111111001110001001000000000111011101
1100111000000101001100000000001111110100001000111100001000000011001000110001110000110011001000010100010011110100001100010000111000000010001011000001111000101111000101001101000011011100111000001101
1110110111100000001100000011000001000000000111100100111111001101000111001011010011000001000100110001101100011100010011010000111111111100010000010010001100001110000111100100001100000010110101001101
0000110111111111111000110011001011111111110111111100111001001101000011010101111000011110001011100010010011010010000011010000000000001110001111100010111111010000000100110100110011000010111100001101
1100111010111100000000011100000111111111110011111110110111001101110000100100111011100100110101000100110011100100000100100100111101000100110011110011001110111111111111100000111111000000110011001101
0011001000110000000111101100000001000000111100010001001111110010001111101111001111111111010000010010001011110011001011001110110000110100110111011101001100100001110000101111111011111101111001001101
1011001100111100001111010011111000110100010011011100111111001101001001001110001101000100000111000001110111011100000101001111001100111100000100100100000011101111010100100000111000010001001000011101
1110111111110010111001001101010000101111111100000011000000000000001111101100000011001111111000011101000100011111111011001101010000110001000100111110001011001111111000000011001100100011000000111101
1110111100110010001100011110111111101101111111101101010011001101001011001100010001001111110100111100111100110000001111010001000011011101000000011110111101000100000111001110000000101111111001011101
1111000100111110001111010100001000000010111100110001001100000001000011010101010011001100111001001110010001000010110111100011001011011110111100101101000100000100001111111100111011010010000111001101
0000101100100010110000110001111111110100001000011110110000100000111000001101000111100100000000001101111100110100111011111101110111000100110000000011000001000001111111000000001011100010111011101101
0100010000100101110101011101110100001111000011101110001000100001001100110100000100001111110100000011110011000001111100010010111010110010000100010011000111110101111101000100000000111101110100111101
0011110011111100000000001101001100110000111011110010111000010100110111000001001000010010000000011111000001010001010000110000110000000100001000110010110000101111000011110011010000110010111000101101
0010001111101110111100011111111111101100111011100010000000011111110100001100001001000001110100001100000011100001001111111101001100011100110111010011111011011011001101000101001100001100111000101101
0100000011010001110001000010010001000100001001001100111001000000001010111111110011110000110111111111001011000000110011110010111111111111000111101111000100101111101100010001001111111110000000101101
1100110011011100110100011110110110111101001000110101111001000010110111010011111000100001010100110010010011001110111000101100111100100100000111000101000101001110111111000100010000011110110011101101
1110001000111110000000100010110100000010110100110011010011110000000001001100001011110001010000101111110011001100000001001111110100100001111011000010110111011100010011001101001011001110001100101101
1110001000100010110101000010111100011101111000100010000111101101000000000011110001000101110111010000000011101101110000011111010000011110110111000010111001001011110000010010111111110001111100011101
1100001111010100010011010000001011101100111000101110110111000000001000101111000101001100010011001100111111000100111000010010111100100000010000001101000111110011001100101100111000101100001011111101
1111001000000010110001000100111000100001101101001111001011011110001111010100110100000010110000101101110111011100001011100000111100010000110111010000010000000011010011001110111001001110110111101101
1110111000111101000000000001111001001101111000001111001111101101001001000001110000101100110000000101001000100001010011010011000111100010001101001100010011110001000011101101010000010011001111011101
0010001011111110110000000001110111110011110011110011111110111111010100011111001111001110111000101111001011001110000111111110010011101100110111000100110011110001000101000010111001000000001111111101
1111001111101101001111110100000001000100001101010001001011001110001100011100000111101101000111001110111000011110000101000010001001010011001100001101001100100011001011000000010011101110111000001101
1100111011000001111000000011000111010001000011100000000011100001111011010100110100110000000100100011000011001111000011000001000101000001000000100001110011100000111111110011010011010100110000101101
0010111100010001010000111100001111001101111101000001110010110001110111110101111011100001001000110001000111100001111001000001110111111111110101001101110111010010110011001100000011111110000011111101
0011010000001110111000011101001001010011000100000001010011010000110011011101001000000010101100010001000111011101001001000000111000011101110000011100010000101100111000101110010011000000010000111101
1111111111100000111101000101000111011110110111110000000111010001001000110000110000111110010001001100110100110100000000100000111111110100001011111100110000101100110100001100111100000011000100111101
1110001011000100110011110000111110111100111011000010101100001011110100101100000111000011001111001111110100011100000011011100110100111111111111010011111011110000010000101100110100110011001111001101
1111110000011100000110110011110100101110001111101101111101000100110111111110001111111101110011100001010011011100010011010100000000011111111111100101111000111110001100000001001100011111000111101101
0100001000101101110100010011000100110010001100010011000111101101000111011101000011101110001100111100111000111100010011101101001001000100000100000010010001000001110011010010001101011111001001001101
0010110000000011110001010010010011011111000111011100001111111110001011111110110011101101000011100001010011001100001101000100111100011101111011001101110101000000111000001101111011001110110001001101
0000110011111100110011011101010001001111110001010011110111100001000100110000000011100001110100010100111011100011000100111111000000001101111100101101110111001111010011100000001011010011111111001101
0000110000100100110101000000000111000100010000000010101100101111110111011100000000011101111100111111000111110100001000111100110001001111000000101100010000011111111000001111001111011111010011001101
1101110100110011000011000100110011100011010001000000000111000000110011100001110100110101000100000100000101010001001100000000001011011101010011100010111101001101000111010000010011100011111011101101
1111001111110011111101001110111011000010010011011100000111001100001001000010001001001101101100111101111000010000000111110011001011010011001000100010000001001111001000110010001000101110110101001101
1101111100101111111000111110111111101101110011000010110000110000110100100001111111010000001111100100001000010010000101000001010000100100010011011111000100011100010011110001000111111111110000011101
0100001111010011001111001111001011001111111000110100000000100000111111010000110000011111000100111101110100001101010011001101111001000000001011100000001011100001010011011100000111110010000100111101
1101000111000001111101000001001000010000110000100100111000001101110100010001000000001110001111110100000000111110000000001101010000100011001011100010000000111111001100100010110101001101111100101101
0010001111111101000000101111111100100100110000110010010011011100110011011100010011110100001000111110010011010001010011000100001000101101001100010010000100011101001000001101110101000011010011001101
1110001100000100111000010011010000101111000111100001000000011111110101000001000100011100111000010011001100010100111111100010110011001111111011001101010011000001001011011111001111101111010001001101
0001101100111110010000010001000100110010111111110010111100001110000111011110001001001100110100000000010000110000101100110000001100100010110100011111001011001100000100111111101110111111111011011101
0011111111100011110011110011000110110011010000000010000101000011111111000010111011101011001000101111000001000010110111101101000100111111111100011100001000100010000000111101110011011100001100001101
0000110001000100010000010001000011000011110001000001000000001110110100100011001111111101001011101110110011011100111000101101001100101111111000001110111011111111111000000100000100111101001100001101
1100001011111110110100011111110101001100010011000100110101001110010000101101001000110101111011100011111100110001111011100010000111101100110111011101000011000011001100001110010100110010000000111101
1101110011010011111000111110111111101111001000111101000011111101111000000011110111001110000011001100111000101111000001000000111111011101110111010011000011110001000111000011001011100001000100001101
1110000000010011000011010001111100000100001100111111001000000101110011000001001000111100000000110011001101001100000111001101110101000100010000110001010011011101111000001011110000000100000111011101
1110111111100001111011010011010000011111111111010001110111011110001101000001010000011101000111010011110101000000110111110100001100001110000011011110110111011110111101011111000100111101001101001101
1110000100100001000100101101000111010001001000110101110100100010001011000101111100010000010010111110110100101101000111001100010011001110000011110011111000111111000111110010000011000011001100011101
1100010011010010110100011111111011001111000011100000000100100011001100101101110100001101010011100010010011110001111011001100010011000000001111111100010011101101001011101110000111010010110001001101
1111110100011111000000100101111000011101001000100000000100000010001001001111001000111100010011011110001111110100010011011110000101000100111000000001001000101111000011000011110011110000110000101101
0010000111100001110011100010001100001110000100000010001011110010010011110100111011111111000000100100000100011111001111110010110000000010001101000010000100110100010011001100001111111111111111101101
0100000111001101001111110001010011010100110000111111010010111111000000111110001111000001001100100011110000010100110100110001111101001111001011101111111100111101001000111110111100010001001111111101
0011110100010010110100011110111111110100010000011111001001001101000000011101111111100000110011000100111011101110010001000010110100100011010000011110010000110100000000100000101100111100000100001101
0100001100010010000000010011111011110011001111010011000011100000111001001101001111010010010011100100110101001100111000000010000000010001110100111101001111110100111100110000000011110010000000001101
0000000000111101111111101111010011010100111111000001000011100011001000111101111000111111000011001101001100011101000101000010000011100100001000000001111100111101001011110011111001001100110111101101
1110000111010011010100011110001011011111110011100010001000000001110001001111001111101111111101001111101100010001001111001111001100001100110010110011001011000010000100010100000001001111000111111101
0011110111101101110111010011111100101101111100011110110111010100111001000001000100110010000100001101001011110011110000001110111100101101111011110000111111101100110111110000111100110011110100001101
0011111011111101101111011110010101001110001111111110110111010101010011110001110111110011110011011100111000101011010000000000111100111110000100011111000011101110111111110010110011001110110111111101
0001000000011111000111100001001000100100110001001111110111100100000100010001000011001110111011001100110000110011001011111101000100100001001100111111000111111110001011010100000000001110111011111101
0010111101001111000100011111010011011100111011110000001100100010001011101101111101000011111011000001001000010010000100110000000100000011001000011100001110110000000011011111001100011100010011101101
0100000000001110010011010010010000011110101100010011110000110011001011001110110111110100000111010010110011010011010011100100110111000010110100010000110011100011001011010100000000001101110011011101
1101110111010011110011101101001111011111001000010010111011101011001111010100110111110100010011111101110101000011111000110001010000001100000111011101010011101111010000001110000111001011001101001101
0010000000100010010111111101001111111101010111011100000000010010111011100010010011101111000001000010000000011101110111111111001111010000111011111111001011001111001111001110001111010100000101001101
0100010001001110000000001110111000000011111111100000111000000001001000000010110011011100000011000010000100001111111101001111001011100100001001000000001010111101000011100000001011000001000111001101
0100101100101101001100101111000001011100111111000100001000011111000111011101110101011111000011000000000011010100111101000011001011011110111111011110010001000100000011001011010000111111001111111101
0011000111000001000111110100001111010100110100110010001100011101010000011101000011010011111011001111110101000100000011111111001011001101000000011111001000000011111111011111001011010011000100111101
1101010011111100110000100011110011010100110011110100111111001101110000010010010011011101001000110010000111010010111001010011001111101111110100111100111101000000010011010011111000000010111001001101
1110010000010001000000011111000101001100000000101100001001001101001011001111010000010011001100010100001011100000001011010011010000100001001000100010110011101100000100001101111100101011111011011101
0011111100110010000111001101001000100000110100001110000001001111111000110001001100000001010000101100110000111111111100000000111011110100110011010001000110111111110011001110111011100000010011101101
0000010000001101001111010011111100101110000111010010001111101101001111010010000111110100111100010101000000110011000011010001001100110101110000101111110101000001110100101111010011100001000111111101
1011110111010010001111100001001100110001111001011110010000110011110101010010110011100011010001001110000000001100111000111100000000111111111011111110001111100010010000001111000011101111000111011101
0010111100000100001011001111110000101100000111010000001011110011111000011100110111011100110000010000101100000011010000111111001011011101110011010000110100101100000000010000010001000000001111111101
0000001100100100000100000010111001001101010000101100010100010001000011000000010001001110111111111111010011110010111100100011001000110001001100000001010101000000000100011100110000000001110000011101
0100110111101101111101000010111111110100111000001110110100001101110100101100000011000011000000110000001001001100000111010010111011101100111101001111111100100000000000111111000111110001000100111101
