0100000100000100000100000001
0100000100000100000100000001
0100000100000100000100000001
0100000100000100000100000001
0100000100000100000100000001
0100000100000100000100000001
0100000100000100000100000001
0100000100000100000100000001
0100000100000100000100000001
0100000100000100000100000001
0100000100000100000100000001
0100000100000100000100000001
0100000100000100000100000001
0100000100000100000100000001
0100000100000100000100000001
0100000100000100000100000001
0100000100000100000100000001
0100000100000100000100000001
0100000100000100000100000001
0100000100000100000100000001
0100000100000100000100000001
0100000100000100000100000001
0100000100000100000100000001
0100000100000100000100000001
0100000100000100000100000001
0100000100000100000100000001
0100000100000100000100000001
0100000100000100000100000001
0100000100000100000100000001
0100000100000100000100000001
0100000100000100000100000001
0100000100000100000100000001
0100000100000100000100000001
0100000100000100000100000001
0100000100000100000100000001
0100000100000100000100000001
0100000100000100000100000001
0100000100000100000100000001
0100000100000100000100000001
0100000100000100000100000001
0100000100000100000100000001
0100000100000100000100000001
0100000100000100000100000001
0100000100000100000100000001
0100000100000100000100000001
0100000100000100000100000001
0100000100000100000100000001
0100000100000100000100000001
