0100011011100100100001111100110001100011101111000010110010010010000011111111101110011110110100101101
0011010101001100010010011110000010100011111011100011101001101010011010110011100011110010110101111100
0100110010100000101000101001111000111000100111010010100010000110010101111111010001111011101100111100
0010001011111101001100011111001101111111111111100000000010111110011111110001100100011101011011101101
1111001000000000011111111001110100001000011001000010000001111000100110100001000110100000111000101100
0100000010110001011111110010011011101011111110100000010001001110101110110100001100011110010001101101
1111100011111110101101001111010010001111000010000100000001110000111100000011011110111100000011001101
1101101100011111100000110100000010001011110000001111010001100100011100001101111101000100011110001101
1011101101100010010011110010011110001111001111010000010011100011111100100010110010011110100100101101
0001101100100011110011110011011100011011111101001100011101000011011111011101111110000000000010101101
1000111110110011111110110100100100001101011001010001100101100101111001010000010000010101001011001100
1110001011101101101100100010101110100000111100110001111111110000101110111100111100100100011101111101
1110011100111110011111010010001110111110001011111110001110000001000001101011110010011101001101101101
1111101110110010000011001011110011010100000001000000101101001100111111101011101111001100001100001101
1100011101010010101101011100101100000011100011100001010010111100110010110011100100101111100000011101
1100000010001100101111011101111110001011100000111011111101100001101101011100110010010100011111101101
0100011111011101001111101111001110111100000001010100001101000001000010111111010001001100100000111101
1101010000101101101011100010101111101101001101000001000000000000011011110100000011001011110000011101
1110101111011011101100001111111100010011001110111111110000001100000000100010010001011011100001111101
0100010100001110100100001101111100001110011111101100000010010010111101011110101011111101000010101101
1101110100010001100100000011010100000100100000101110011110110000001111011100011111010001001011101101
0100000001000100001110011111010000101100111101111101001111001100110011100000101110010100000010101101
1100110000000010000010110100101011110011001101111100001111010000101011110011111011110011111101011101
0011011011111111111101001111010010000011100011011110100011100100010011011110100010111011111100111101
1110111111001100100011011110110000011101110111111010110100010001100111110111110000000011010110001100
0001001110110010101110100001010010011111110100000100000001100010000010100011001011101111100010001101
0110010100111101001011010101010000100000111011011011101101010010110101011011100010010110100000011100
1110100010010100100011011100010010100010110010110011100000011111011100101100001111010001101100001101
0010011110101101100001101101010000110001101011111100101100000000000001110000010001100011011011111101
1100010000001101101100111111001110101110101101000011111110111011100010110011001011110010101011101101
0011111110000100000010000100100011111100110100000001011100100001000011100010000010110010111110011101
0001010001110011110100101101011110000011011101001111111100101101010001000010100010000010101101111101
0000111110000010001110110001001011110010001111101101000000111100000100100001111111000000101111001101
1110101110000010011111100000110011000010111011111110011110001111100011100001000100010001001101111101
0001000001000011110001000000001110010010011110110100010100000000011110100011011100000010010000001101
0000101011101111001110000000010011010011000001000011000011001101100000101111111011110000100011001101
0010110000000011110100101100100001010011010010000000010001101111011101000011101100010011011100111101
1011110010111111101110110001011101000011001100110010001011110100000010011111100000101110011111011101
1011101111111100011100111101010010110000100011001101001110110001101100110000111101010011010010001101
1011101111100000100000000001100001011100111110110010100011001100000011111100101100011111000010111101
0011011101011101001101110001011111100010001101010000001111110001001111011111110001100100100010001101
1010111000111110111111000010100101111101010101111101010000000111110111011011110101011010011110011100
0101100110110110100110000010001110100000011111001001010001000001101100111100111010010100010111111100
0001100100010001000010010011011100100011101101100011001100111111011110110100100100010001110010011101
0100100010001011100011110000111110101110001100010000010100011011110001111111111011111110000001111101
0010010000011011101111000000001100111111101011100010001100101100111011101111010000100001011111101101
1110001100100010010010010100001011101100110011001110010100001100110010100010100001001101011100111101
0100000011000001011100011011100010001100111101011110100100001100001111000100000100100000100011011101
0011001110010011001110011100101011111101110100000011001111110001101110001101000011011100000000101101
1110101101111111101011101101011110001110000001000011100001101100010000110011000100010010010000111101
1011101011110001010000000100000100010011101100101101100011111111111101011111000011101011110011101101
0001110000101110001110001100011100100001101110010010111110101110100010110100100100011101000010111101
1101101110010001000000111110101100110011100001011101100011010100000000110001100001001111000001101101
0110111110000111000101010111111101010011100110010101110010110111000100000101111111111011001011111100
1111100001110000001100010001101111111101100100100001011110111100110100011101110010000000010100001101
0100101011110001011110110000000011000100010000110011000011011011100010000010001100011111001110011101
1111111111110000101100111111010010010001110010000011001111010010111110011100101100000010011011111101
1111100001101101100000101110001100000010011111110100100001000011111100110010001101101111001101101101
0010011100000101000011000110010100101101000101000111100100110001001011101100001100101010001010001100
0000100001001110110010110100100100001011100001100000001110001111000010101100010000110010100010101101
0000100010010010000100011110011111011101011011110100010100010011101111010100000100001111110100101101
1110110010111111011111110010011111010011001110010000111101101101100000001111111111100100100000101101
1111110001001101010000111111100000000011110001111111000001100100011101001111100010110011101111101101
0000111100100011111100001100110001010001101101010010100100000000001111111110111111100001011100011101
0100101111111111110001001101001110100001010010110000000010110010001011111011111110001100010001111101
1111111111100001101110101101101101001111111110101100010001010010001100010100010000001101010000111101
0000001101001100010010110100000000110010110100100000000001011111001111010010101110000001111011101101
1100010000101111111111011100101101111101010001100010101100000100000001100011010100000001000010001101
0100100011010000011110010010101100111110100001011110101110000010000010111101110000110000011110011101
1100101110110000110011000011001110100000111110111100010011101100100011111111100100101111001110101101
0000111011111111111101011101101101000000001100010010000100100000000001101101000000100010110010011101
1100111100000100011110110100100001110011101110101101010000010000100001001100010011010000001111111101
1110100001010010101100100011001111000001100100010010011100110001110011001110001101111111110100011101
1110101100100001111101000010110011000010100010110001111011101110110010100011100001101110010001111101
1101110010001100110011111000001011111011100011110001110010111111100101100100010001001011000100101100
1111011111000001000010111101001101000011001011110010010010011111010010011111001100110001001110111101
1011101101101011110011101100101111011111110011110010100001110000011100001100111101011111000000001101
0010111101100011000000110000001111010000011111000011000000100100101100111011101110101101100001111101
1111110100101101000001110001111110110011111011110011000011110100010011001111011101100100010100001101
0100010001111110101111101101010001001011110011001110101110101101011101110010010001110011110011011101
1100011111100011111011101111001100100011111111001111001101011011100011110001011101000010111100001101
0010110010000001001110100100010000010001011110011101000011000011110001110010000010010010101100101101
1100011110111011111100000011101100000001101011111101011100010011110000100000100011000001000010011101
1110110100010010000000000011010000010001111110000010100011111101010010100010111101000000010001001101
0011100001010000001110100100011100001110001100100000010011100000011100000100000100100100000000101101
0011111110001111110001011111000001011110101110011100110001011110101101001101110011111111101011111101
0111000000011010000100000110011111111110110110001110100111101001110100010111001001001100110011011100
0011010000000011011101100100100010101111110000110010001100011100001100011110111111111100110010101101
1011101110111100110010001101010100001110010010010011001110110000000001111011100011111111000000101101
1111001110110000111111001100010001001101110000110100000011100001001101111011100010110000011101011101
1011100100001111000001100011101110001110110011100001101101011011101111011011111011100011100011001101
0010101110101110111101010000110000011111111101001100101011101101100010010000110011001101010001001101
1001110110100100011111010010010100110011111011010010100011111000101000111111011111110011110100011100
0010000000101100110010000000000000001111101110110000011111001011100100100011010010110010010000111101
1110010010010010110100011100101100011100011011100011111111111011101110111111001111110000111100001101
1011110100010011010000101110000001100000101101011100001100110010101111101110101101001100111111011101
1110110011101110000001010001110011110011110100011110101101001110001110111100110010010010000010011101
1010100001010101010100000011000000100000111110110100000001100100000010001011111101000000011111111100
0010011111111111111010100101001010011010001001101010001001000010110001000111110010011010010000111100
1011100001101110000000100010100001101100100000100001011110011101100010100011011011100001010011101101
1011110010101111110001110000000011010001000100000010101110100010110100101110100011001101001110001101
0111001111111111010110000111110111101111100110001010000011101101100011010010100001011101010011011100
1101101100111100011100101100110001011101110010111110001101001110000011101011101100110000001101111101
0100010000110011100000001100010001000010101110111111011110100000000010100011101110110001000000011101
1111000010110001010000111110001101000000010001000000001111100100100100001111010011110001010010001101
1111110010101111010100011101011101001110101100001100010100101111100010111100110100101111010010001101
0110101000100111101001010100111010001001110010100001010010110000000010110101110111111110011100111100
1100011101000011110011111111000000100001010011101101111111101110001101001101111101010100011100011101
0000000011110010001100111111001111010001000010111100001100101110110100010001010001011101001100101101
1100111100000001110000000011110100010011111111110011111110000010000001000001111100000001010001001101
0010110011001011110001110100010000101011110011000010001101001110010010110011000100010011010000111101
0010000101100000110101000100011111000001011110100011000011011111001011100101010101101010101111011100
1101110000000011100010011111011111010001010001000001010100101110010011101101000000000001011101001101
1101010001100011110001100001011100001101100010111100110010100100000011010100101101110011111111001101
1101100000011111000000010001101011110010011011111100010011010001011100001100000010001110011101101101
1101100100010001010010001111010010110011111011110011110011100011101110111100111110000001110000111101
0010011100101111101101101100111110011101111101100001111101011110110100010010101101000010101111001101
1111000011000010101100111011100010011110111111010010101110011101000100000011100000101110110000111101
0111010000111011101111001011000100101011110101001011001110111101100101110010010111110011011100101100
1111000100011011110011110001001101011111010010011101001011111110001100101110101101001011111111001101
0000011110001100001100101111110011010000001100100001111110010000110100000000110100101110100001001101
1100010010101101010001001011111011101100010001011110110010000000111011111101100000010100001101111101
0001000010000100011100101100000011000011011110111110110001111011101011111101110001110001100011111101
0001001011100001011011100000111111000011010001101101001100111100110100101101010100000001011111111101
0000111100001110111101110010101100010010110000100100100011110000110001101101100011010100100011011101
0000010100011111101100000011100000011011111100011111111110110100001101110100101111000010110001101101
0001100010000010110010011101110001001100110011100001110011101110011110000001000100011011100001011101
0100100010010111110011101000100010000010000010010010111010100110000000000011001011110011100001111100
1110001111100100000011101011111101001100010010010010010011110010011101100011111101101100110000001101
0001001111111110011101110010111100111101010000111101110011000001001100110001011011111111001101001101
1011110010011101111101111011101100100001100011011100001111010100000010111111001100010100100001011101
1111100100011111101100110010100010101101000000100001101011111101101100111100101111001101100011001101
1100101101110000110000110011001101110001110010110100101101010011010010011110010000011110000011111101
1111000011000100011100010000111100010000110100101110110011100100001111001101000100001100011100001101
1100111100110010110100000100010001101101011111100010010100010001011011110000011100101111111101001101
1101100010000100001111001111110010111101100011011100110000000010011110111110001111011111000011111101
1101111110101101101111110000011111111100001111110011111100001110111100100011000001010100000000111101
0000000000001111001111100000010000001101101100110001001110111100000000111100101100011100100000101101
0010011110100011001011101100001110011101101111000100000010011111000010100010001111110000001101101101
0001110000001111100011100000101111000000100011001011110100010011111100000011001110101111011101011101
1101110100011111111100100001111111110011110011101101101100111011111100111011111110100011101101101101
1100001110110000100010110001010011001110110100101100001111010001100011110010010001011100010011101101
1101111100101100011111110100010100101100101101101011100000000000101011101101101011101101111110011101
0100011110110000100001010001100000011100011100010010101110000000000001100100010000111111000000101101
0010110000011011100011010100000001000001010001000000100011001110010001001100100100010010110000011101
0000010001010011100001111110101111001100010001110001111110010000100011100010111011110011101110111101
1110000001101101101011111101000100101101101101100011101100011100001100001011110100001011111100101101
1100000011010001111110001101000011100000010010111100101101010001011101010000111101100001110010001101
1101101100000011110100101100011100010000100011001111001101101011101101100010011101101110111111101101
1111110000011110101100111100011011111100011011111100111111000010100010110001100011111110000001101101
0010011111100000100011010000011011110000000010111110110001000011011110010011100010000001110011011101
1100100001000001110000110000100000000010100001010100011100001011100010000011111101101100001111101101
0111100000011011101100110010001000101010000100110100010001100000101100111101000100111101000100101100
1110001110001101110011010011100100001111001110001011101101011100011101101101100001110011101110111101
0000011111010001100001000100011011110000111111110010110001110010111110010011000100100001100010101101
1110011110010100001101010011100011011111101101111111001101011101000010001111000010000001100010111101
1110101111001100011111000011011110110001110100100010011100101101000000000001100010010001110011101101
1101010011010001001111001100110000101011101110001110010100011011110001000011111101001011111111101101
0100010000010011010001001110011101001111101100000010100001011110100010100011010010100001010000111101
0011101100010001000010101111101111101110000011111100000001101111100010000100000010111110010010101101
0010111111010100101111111100011100011100110000110011011111000011111110011100000001010001111101011101
1110011101101101001100011110101111011100010010110011011011101110111101010100101101110001000011001101
0100000001001011111100001100011110111110000001001110011110100011111011101011111110010000001100111101
1100011110011100011011100001110001001110000001100100010001111111001101110010001100000100000010011101
0000011111101110101101011011110100101110111101010001111111100011100100010011010010101101101110011101
1111010000010100001100111100100000110011100100000000000001000011100010000011000011000011111100011101
0100000100100001100001010000010001011110100000111111001110100011011111000001001101001011101101101101
0110010011100011010000000110000100111110101101000100100111110011111111111010010111001100011000101100
0010111100001101000000101101100011110000110001010011001100001110011111111100001101000011100001111101
0011001101001111100100100011111111110000001100111110000011111100110001100010100011010100101101011101
1100000100011101111111100100011111000011110100010011001100001110101111101101001111000000110010001101
0001001100011110010100001011110100100000000011101011111110100100100100000011101110011100101101011101
1110010100001100100001110000010100010100101110101111001100011111010010110100001111100001100100011101
0010100010110010110011000011110000100011101100010100010001100001000001101110100010010010110000001101
0011100001010001101011111111001111011100110100101111100010011110100011001100000010111110100100101101
0010110001110100010010000010001101010010100010111111011111001110111101110001010011101110010010101101
0100010110100110000001000101011010110110111111101101000000101110010000000111100100100001011110001100
0011011111100011010010010010011101110000010011110011000001101101101100011101110010110100100000001101
1100010100101100101101011100100000001111111100101101110100011101010000110010000001001100011101111101
0110111000111010101011101111111111011011001010101101111100110110110011011000011000000110111011001100
0000000000110011110010000010010001111100000001101110000010000000010001001100101011101101000011001101
1110000010110011100011110000011100000011011100000010001100101110100100000000001011110001000011001101
0001110000110001001101100000010001110001011110110000110000011110110001010000000100011100101111101101
0010100010100001110010001101010000000001011111110100001111101101010010100010110100100000100000011101
1100001100001111010001011100001111001011100100010000110001001110001110100010001101101101010100011101
0011101011101111111110010000001110111101001101001100000000110100001101000000010011100000110100101101
1101100000100100011110001011101100000100001100000001010010101101110011000001100001000000011110101101
0000110100100010100000110010100010001100001110110001000011010011000011100001000000000001010010111101
0000100010001011110001000100000000001111000010010001111110001101011100001101001110011100001011111101
0001011101000011010011110000001100101100111011101111101011100011100000100100011101010001100011011101
1111110111110100100010010111101100101110010111111010000100000111010011011011110110010111101100101100
0101111110001111001111110111111100100100001110110101110101100001010110100011110111111111110100111100
1110010001101011110011100000110000100001100100010000110011000011000011111101000100100011100010101101
0011011100101110010000011101110001000011000001110011011111111011100010011100001100011100100011001101
0001000000001111100000110010010001010010010000101110000000001111111011111111111011101011100100011101
0000111101110011100001101101011110110011111100011100111111111111010001110010000100000010000011111101
0001011100111110110100100001100010110000010010100100100100101100111100110010011101000001101110001101
0100001011100010010011000001011011100100000001001111001100111100110010010010001100010011010000111101
0001001100001101011011111111000100010011101111011100010010010100001100100001110010001101010001101101
0001001110111111110000110011111111011100001011100100101101011101110001110100010010111111111100001101
0010110001110010101111011110001100001101001011100001010011011110111101001101011111010010010001001101
0001100011101100001100010010111110011111100100101111000010011100010011011111110010100000010001111101
1011101100111111011111110001000001111100110010000000000001110000100000100011101110001100011101011101
1000111011010001100011110011001001010110010000001000111110010111111101111111000011000010010001101100
0100010011111100010001111110100001110001000001000011000010001100101011110010000000111110010011101101
0000101101101111100010110101101001111001100110100001001110010011111010100111110110111001111100011100
0010011101101101011011100001110000111100011111000010100011101100111101011100010011110100010100011101
1101011011110010111101001110110001100011111101110001000011101101011110011011111111010001110010111101
0000010000000001000001110000101101110010111011101110011011110000110011110100100010011111111100001101
0001000010001110010001100010000100101011101111000100010010001101010100101101101111001100010001101101
1110011101110001100001111111110100010010011101000100011100111111000100000100101110011111010011111101
0110101111000011010111110001010110010110100111101000010000110011100101011101110101000000110101111100
0011110010010000100000001100101110100011001111111011100011001110010100011110001101111100111011101101
0010101111111110110000110011011100010001010000111101001011111100001111011011100010100011010100101101
0000011100110000011011111110101111111100000000000100100100000001001110010011000001100000001111101101
0010011110110011000001111011100011011111100001011101101100000010001101110010100011011111001111111101
0100100011111101111100100001110001010011101110000010100011001110111100110001100010100001111111101101
1001100111110001000110110001101111110100110010011101100101101111001010011000110011010111101011011100
1110000100101101001101011110101111110000011100101111001110010000111111000100000011010011001101001101
0010001101001110100000010011110010101110001111000010011110010010000000110000101011110011110000101101
1100111100111110000000101110001110100000110100001101100000110001011110010011111100000011010010011101
1110011100010100010000010011010010110000101100011101101111011111110011110000100011010011100010111101
1110011111111110111110111110110001001101000000111100100100101100111111101101011100000000010100001101
0000000001001100011011101100111110000011111110111111110000110001001101111111011110111110101111101101
1101001110100011110100001101000000111100111100111111101100101111110011011111010010010010111011101101
0000001110100100000001101100101101100011001101100011100000001011101111010011011111110011000000001101
1110111101100000111011111101010011011111010000010010101100010011110001000011011101010001110011111101
0001101100001111001100000000111110011100100010111110100010100010000001101100001111110011001101101101
1100111111001100100010000100000000010001000011100001011101010010101101000000011011110001101101011101
0011001110110100100100100000101101111111000010000010101100000011010001001101001011111110000001011101
0001111111101101011011100100100100011100111101011101001100100011001100000001100010011100100010001101
0001100011110000010000000100001111100001000000100100000010010011011111000010000000100011001110011101
1101000100001100100001101101001110110000011111100000001110101110110001111100110001000000110010101101
1101010011011111001110100100011101000001001011110000010011001100100001000010010001010011001101101101
1111000101101111101101110101001001101000111010110011100101110010001100100010101111101011010111111100
1100001101011011111110011101100100001101001110010010110000001101110010101111011101011100001111101101
0010111111100100100010010000100001111111010010000001011111101100000010010011000011110011000100011101
0011010001001111000100101110010011100010110011111111110100010001101100010011010100011100000000111101
0001101110001110000000000001101111000010111100011110110100011111100011010001110100001101110001001101
0001100000110010001101110011011110000100100001000010011110001111101111110000100100100001001111111101
1111010001111110110000000000000010111101010100000011010001101111001111101100100100001110101100111101
0011110011001110011110110001110100101011111111010100010000010010000011001111010100010011011100101101
0001101101111110101110011111100010100001010010010011110000101100000000011110111111110000100100011101
1011100100010011000100011111110001000000001011101100011100011011100000000100101100100010110011011101
0000001110000001101110010001100010101111000010101111011111110001010010111110110010011111011011111101
1011100100000100100011010010001101100011111111010010111101111100111011111110011100000100011011111101
0001000000011111111101000010010100011100010011111101001111000000010001010010110001011110010000101101
1100111111100000001110100010000000001111000001000001000001010001101110011101011101010100101101111101
1110111101010000111110101100100010110000010000111100100000000000100011011110101111001101001011101101
0100010010110100011110001101101111101111111110010010101111001100000011000011011101010010110001111101
0001100010111111010100100010010010111101101011111101011011110001000100010001101100010001000011111101
0000111110001101111111111101000010010100010010100001000001110000110001001111100100010000111110101101
0010010000010000001011101011110011110011101110010001110000111101100000001100110001001111110000111101
1010010100111001111000001101111110110011100000010001101010000010100110001011101010110110111010101100
0100001101100011110001100001011110001110100000101011111110010001101100100010111101001110100000011101
1101000100010011010100011111011101100100010001110000000010100011101110101110010011101110011111011101
0001011110001101101101010010010001010000011011101110110000010000110000001101010100000010101111101101
1111011101010000010001011011110100001101000011110011011111101111100100000000101100101110101100001101
1010001000110000101100001111110101100101001000100011111100101000111110011110101001100010010010111100
1100001011000001110001101101011011111001011011001101100101110011010011011011000001111101011000101100
0000000001000000110000010010000010111100010100100011111110111110100001110010000100010001100100001101
0011001100010000100010100011110001010100100000011110111101111110000000101110100000010000011011111101
1100101111110010011110101111110001001111001011100001011100000001101110010000101011101111010000001101
1110111111010000100001011011111100110001010010110100010011100100001100000001001111011111001101001101
0100001100000010000010011111101100101101010010110100001111000011011111101100100001110011110001001101
0101100110011010010000111100011010101110111100111011110110010111000110111011100110010000001000111100
1111011111001001101100101111100101001011101011100101011100011110100011000111100111110111111110101100
1111001110110011111100101111101100001101000001100000101110111100001110000011100010110100100000001101
1110111011110100000010001100001111101110111100000011101011101100100001011011110011111110100011011101
0011001101011111101110100010010011111111110001111110110010110100001101101111001101100001010000111101
1011101100100011011111101110000001110000011110010010001101010100100011000000000011100010001110011101
1111000010110000100100100011000100110000011100001101001011100100111010000101111010101101101111111100
0011101101000011000000101011111100011011100000001100010011001110010100100100000001010100011100111101
1110000000100001001111111110100001101111110000001110100010100001010100010000001111101101111100111101
1101000011001100100011110001001100011101000000011011101100100000100001100000101100011111010100011101
1101010010111100111110111111011110110011000001000000101111101111001011111101010010001110011110001101
0101110101110001001000110000111110011101100110111111111111011010010101110011010001010111100011001100
0001101110110100100000110000011110101110000011101110010011110100101101001111010001000010001101101101
1110011111111111000010110010100010110011011011111101001101110000101110100100100010000011000010011101
0000111100001111000011001111101110000000000001001011101100001011111100100001010100011100000001001101
0010110011011100111110000001100010111110011110110011010001100011101110001111010100011011101100101101
1100000001000011110010110001010011100100100011001101101100000000101011101111110011011110110001001101
1101100001011101000011001111101101000000010011000100010000000001001110011100000000000011000011001101
1101001101110100000011000100001111001110110010000100010011100001101100111100000010111110010011001101
1100101111011100101111001111010000111100000010111111011111011110000000001110010000000100000011011101
0010000011001101000100010100001101111100100100000001001101000010010000111101010011011111000001011101
1011111100100010011011100011110000000011000100100010101111111111100011111100010010100010110001011101
0011011011111100011111111101100010100010110010000100100011011111100100010001110001111100101101011101
0011010001101011100010011111110001000001101101001111111111001101010011011110010011011100000010111101
0010100010110000001011101110110001100001011110000100001110110000101100101101100010101100111101111101
0001100000100010001110001100100010111100100000000011111011111111110100101011111111110100001110001101
0000110011001100010100101100111111001101010000010001100000000001110011111111000001000011111011111101
1011111001110011001010101010000010011100001111001010000111111111101100010011001100011100010110011100
1011101011100101000111110010011100010110011110000001101011101010111001110001010011110011111110111100
0011101011111100110001111110111101010100100100001111111110110100000011010001001111001100000011101101
0000010010110010111110001111001111110010010001101101000010101101101100001101100000110000010011011101
1100111101000011100011000010111111011101110000110001010100001111010000010010110011110010001100111101
1100101101010100100001111111011011110100000011111101111100010000111011100001010100001101110011111101
0000101011111011110010011111101110011111100010001100101101011111001101100000110010110100100001111101
1111101101000000000001000001110010100010101100010100100001111100000000001100101101101100000011111101
1100010001100011101111000001110011010000000001101100100001001110000011010000000000110100101011111101
1100111111100011111011100000010010010000010000101100100011101111110100011110010001110100101110101101
0011111100101111001011100010101111000001100100010001110010110010011011110011011110011100111101011101
0100010111001100111101110000100010001011110010010111000001111000011011110101010011111001110000101100
0011111110000011010010001101111101010000011110100010111101100100101011100011011101001101010001101101
0100001110100001111100001111000001100011111110101110001100010001011100001111010001010000111011111101
0011101010001110111110111010111111000101001100011011010010101000111100000011010011000100100100111100
1101110001001100000001001110000010001101100000110011000010100010110100001101110011011111110001101101
1100001101111100010100011011111100001011111011111100111110100000110001111100111111100011000000011101
0010001110101101101100110100000011011101100100011100111100100011100010000000010011010001101011111101
1011111100101101011011110001101101000011111101010011010100101110110100000011011111101100001100001101
1100000010001011010001001100101000011111101010000101110111000101100111110011010000010110110000101100
1111001101110000101100010010011110011101001011100000000100001011100001101111101111011101011100101101
1100011101100001010001100001100011001111010011001111010000000100101111101100111100110000011110011101
0010011110101101101100011111010000010011001100000100001110011100111101101011110011111100100100101101
1111011101001111011011111110111100111110110010011111001110110100000100000010110011110010111101001101
0001000010001100010000111110000010010100011100101011111111010011100011110010101100011101000010101101
1100110000010011100001101100001111000010110010000100011101010000101110100001011101111110101101001101
1100011011100000000010011101101111000001101101100010010010010100100010100000100001110001111110111101
1011100000010011100001001111101110011011100001001101011101000100001011111011111101000001001101011101
1100100001011011110001101111011101110100100000100001010010110011010100000001000100010011111111101101
1101110010010010100100100000001100111011110001100010111101101101101101001110010000010100101101001101
1100101011110100001110011110100001010011011100001101010001111110010001101110111110100010100000011101
1100100011110011101111110100001011111110001011111110011110001110001100100010100010100011100001001101
1111111011100010111011100000000001101110100011110001010011110011011110111110111110100010101111101101
0001111100100100010011011110100010100010111101100001000001011101011101110000110011010001011101011101
0010110100011110111111000000011111011101011100001110100011000011101101000010111101001110110011011101
1100110001100011111100100001000010110100011101111101100010100010010000111101111110100001000010001101
0000001110111111001100110100000000111110001111010001011100110011110011010100011111111110101110011101
1101000001011101101101000001001111010001101100000010010000100010000010001111111101101011110010101101
0011110011111011111101011111101110111011100011010010000010000010100000111100001101111101010010111101
0010001111010100010010010010111110000000011101010000011100000000100010010100001011101110011011101101
0011111111101100111011110100011100010100011111010000110100000001101100001111110010010010100000011101
1111100100010000100011010010011011100011100000010011001100010100000011010010110011100001000000111101
1100110011000010001011110001010010110001010000100010111100100011100001110000011111001110001111101101
1110010001101110101011110000111110010100000001000100010001010010001101100010010010000010001011101101
1011101101111110101111100100001101000001111100011101101101011110001110100100001101110011000010001101
0010001100111011101101000011000010010100100000011100100010000011010011011011100010110001010010111101
1110111100010011000001110001010010110010111101001111010011101101000010001111010011000100100001101101
1011100010000011010001001101011100100010111111110100001110000010000000010010010010100000111011111101
1110110001111110101011100000101101010010101011101110000010110000011111111101011110001100001100001101
0000100010101100111110011100010001110000110000101101010000010011111100000000100100011101011100111101
0000001110100100000001000100100010100001101110011100010001001011100011110100000000101101101101001101
0100011100000000001100000000100011010000010011101100110001001111100000000001111110000010101101001101
1101000100001110000011111110011110100000000001110000010100011100010000011110000010110010001111011101
1100101100011100010011010100000000101101001101100001101110000001010001001110111011100010001100001101
1011101110110001111101110000010010100100101110011100011111101100001111010100100010001110101100101101
0010110001010000100001110010111100011101011101011011111100011011101110101111010000110000101110011101
1111001101101100111101000010101100010001111111010010011101100000111111110100000001101110001110011101
0010001100100001011111101110010001111110010011011100010011100011110100000010110001000011011100001101
0010110100000001101100010011101101001110001111000100101100100001111111000100011111111100110011001101
1100001110101111111111000001101101001101011100100000010010100001110011000010111100010010101011111101
0000001111100000110011001011110011010100010011110010100001110011111100100000000001000010010000001101
1111001110001100100011000011100000010000001011111110110001110100101100000000001101111110011111001101
1101101110101111110010101100000010111100000001001101010010000100100001100010001110000000000011111101
1100110100001111010011100000010100000011010011110011000010001100110100000000111111100000000011101101
1011110010100000100001001111000011101100011101110010010010010001001110011110010010001110111111101101
1101100001111101110010011110010000110010001100100100011100010001010000010000010001001110110100001101
0000010010101110000001100010011101100011001110010011110011011100000011001110100000111110111100111101
0011000011011111111110011101001100100001101011110011110000111011101101100001011100110010010001111101
1101101100010100101110101011100000001110011110101100000100100001101100011011110000010001111101111101
1100110001000010011100000001110000100010001111010010010010110010011111100100101101111101100000111101
0001110011001111101110110010100100100000010001101101100010010100010011100010010001010010010000111101
0011111110110010010010010001011101010010001110111110101011110010011110010011100001010000100011011101
1110100010111101011101000001111100000001010010110001010010001011111111111011111110111011110001011101
1101111110011110010000110011000001010010000010100100100010100001001100001110000000001100000011001101
1101001100111100100001101101101111001100100001111101001011100000110010111101010000101110011101011101
1111000100101101110011011111110001011110011100111101010010010001010001000011100001011101100010101101
1101100010010001111111111111000001101101100001110010101101001100101101100010000100100010011101101101
1101011100001100000010001100111111100001110100010011000000011100001101011011101100101110101110111101
0001101110001101101101000001111011111111100011010000000000101111100010110001011100010001101110001101
1110101111000010001111000001100000110000101101100100010011011110011100000011001100111011111110101101
0001111111011100110001110001010011001100100011101111101110111110111101000100010000001101110100011101
0000011111100000010000000011001100000011000010101100111100010100010100011111101111101100101101011101
0001110011101011110010100000101110010100100011101110000011101100101100111101001111100010101101011101
0100100011010011001110000011010010101101010001110100000100101011111101111101110011001110001110101101
1011101100011111110011010011110011101011110000100010010011011110001110100100011111000100000011111101
0100010001000100101110000010111111101100001110101110110001101110101100110000110010111110011101111101
1111000000011110001100100010010000111011111100010010001100010011100100010011100010100011111111001101
1111110011000000001101001011100000100001011110000000001100110011101110000000000010000011001110001101
1100110011100001001110011100110011110001010010101101101101010100100000001100001101000010100000111101
0010111100010011111110111110001100110000010000011110111011111110011110010000001111110010100000011101
1100101101011100110000010010000001010010001111110100010001010100001110001101111111101110000010101101
1101101110101110110011111100111100111110001101110011101110010100011111001111100001011101010000011101
0001111011101111111110110100001110001110100011101110011110111111011111101111010000010010111011101101
1100110001110001000010100010110011000100001100111100000100101101101110000000101100100001101111001101
0001001110000100100000111101110000001111011100100000101100011110000011101111110011100000010011001101
1110010100000001011011111110000000000000101101000100100001011101011101100100010010110001100100101101
1001000001001011001101001011101111101001101111100101100100011001001110111110100101111110011110011100
1100100011110001110001110000101101110010000000001011100001001110101111111100000001000000010000111101
1101000011000011100010001100011101010011111101100100100000010010111101110000100011111111011101011101
0000001011111011100010111111100011101100110001100001001011101111001101001110101111111110100001101101
1101101101011011101101101111100001011101000100000001111101000010100001111111011110100100010001011101
0000010010010010111110001011110011110010100000110011111100011101100100001111101101110011010001011101
1111000010010001110000011100100001000010100011010011101101101100000010101110100000111111010100011101
0010000000101101000001011011110100101111110001010001100010110100010010010100010000000010100000001101
0001011110000010110010011110101110110011010010111111100000000001111110100001000010100011010100011101
0011100001100000111011111101110100010010111111011111010001111110000010111011110001000001101111111101
0001000000100011000010011011111101100000111111010011110100010001100100101100000011010100000001111101
1101101000110111101010010110110100000111111011100011111000100100101011110011011100010011110110111100
0110011110001110100000011010111111101111101110100101001111110011101011010111111001110111001111111100
0000001110000000111111110000001011101101101100001110011111010011001110010000001111100001011101001101
1111101100001011111110111100101011101100110100011111100011100000011110110100000100001110111101101101
1100100100001111000001011101110011110000011111110100000010100011000001010010010000010011110010101101
1101111111011101011110000100001110001111010011100000000100100010110100101111010100100001110000101101
0010100001001100010001110001000100011111110100000010101101000000010100001100001011111011111100011101
0011010001101110001110110010111111010001001111010010000100001100101100000000111101011110010001011101
0000000111011101100110110001111011100101000011101111011001110110011110011001101010001011011011001100
1111001111100011001110001101010100001111001100001111100001011101101110100100010001011100011011111101
0010100000111110111101010000011101100100000000011100001111111100011110011100101110011011111101001101
0010111110111111010001010001001110001011100011000100011110011101011101111110100010000000111100001101
0010110000011111101110000001000000010100100001100000010000111101111101111100111101011101110000101101
0000001100001100101111000000011110000011011101101101101110010001001110010010010001010011100100101101
1101100100100100010001101100111011101100101101011111010010001100000001111011110000010010001111011101
0101100001100000011100110110100010110100001100000010111100001001100100111110010000110011101011011100
1101000100001101100010101101101101100001101101100100000010100011011101110010101110101111001110111101
1111011101100001100010100011110010111101110100001101011111001110111100011101001110000100001011101101
1011101111100001110000000011000100011110000001101110000000011110111101000001010000011011111111011101
1110100000011100010011111100111100011111101101000100001110011110011110010001011111100001000000011101
0001110001111110101111100000000100011110100100100001011100011101001100100010101110011101001100111101
1101101101001100011011111011100000010010111111010010100010001101010100100011011111110001111101011101
0011111100111111001110110011011100001110101111100011010001001100011100001100101011101110000000001101
0001001011100000010011100011101110011110100011000100010001000001100001010000100100000001010100001101
1101101100010001011100110000111111000010110011011110010000111110000000100011010001101100010100101101
0100000011010000010001011000100111001111001011010111110111011011101101010011001110011011001111011100
0100100011100100001100111110000001011011110010010001111011110001110000111100000000010010100000101101
1101100010011101111101110001001101110100011111011100000011000000100010000100010000111110011101011101
1011101110110001000010000010100010000000100000000000010001000000111110011100110010110011100010101101
0000101101000100101101101110010010111110101110111101010001001101010000000001110001110010101101001101
1101000101010010100001011001010010100101100111011100110011101000111010010010010111000101110010111100
0001011101111011111110100100001101100000100011110011100001010011010010101100101101010001111101011101
1111001011010110100110011010100110111111111110100101101110110101000101100101000010100100010100101100
0100000011001101101101100000000001100000111100011101000001101101001110111111000010001100111011101101
1011110011000000001101111101000010001100110001000001100010111110111110110010001011111100000000011101
1001101010010011000011101101011010101000010111111001001110100011011111100011100101101010000101101100
0010010010100001011110001111011100011100110011110011100000011111110100011100000011100010000000011101
1101010000110000101111001111000010010001000001101111000100010011000001001111001101100010101111001101
0000101100011101001111001100101111101011110011100011010000111100000001100100100010100010001110011101
0000100001111111110010101111100100010010000010110001011100111110001101111101111011110001111101011101
1111001110100010100011000010010010110010100000110001110011001110001110101101001011101111000000011101
0000010001000011010001110000010001111110100100010010010010010100010100101101011110000100000000101101
1101011101011111011100000011110010100011010001001100100011110100000000111110010011110000010011001101
0011111101110011001101110000110011011100101111000100000100011100001111010100001110100001011111101101
0001011111101110111101101100101111111100011100011100110000010001100100101111111100100001101101111101
1110100001111110101111101100001110100001100001000011111100101111010011011111101100001110100000011101
0001110001011101001101001111100011100100010100011110001110000010010000001111101101100001110001101101
1110000010011011100010111111110010010000110000000010000001100010010001100010011110100001010011101101
0001110000101100110010111101111101001110011100100011100011101101101100001111110100101100010000001101
0010010100011110100011111110010001110011010100101111100100100001101110101101011101001111000011011101
0100101111100010110001100001111011110001111110111100101111000001011101010010011011100000001011111101
1100001111100000110011110010111100000001011111001111011011101100000100100011001101010001000000011101
1100001100111011111110000000101011110010111101100000001011111101111011101100000000000011110000111101
0011111010101101110110000011111011011111111001010000100110010101100100011011000110101100001001011100
1100111110101011110000100010110001001110100000010011010010100011010000010000000010000011001100101101
1111111100000010101101110001111101010000100001101101011101101110011100101110011011100000011011101101
1100101100111111011110000100011110011100101101000000101110000011101100111110000011111110001110001101
0011100011111110111100100100010000001100011101011100111111100001001101001101010001001100100001001101
1110100010011101110011010010110010100001100011110000000011111011101110101101110001010010101100101101
0010101101111100101110011101010001010100010000100001000001101100100001011111100000000010111100111101
1010111000011001110110111001000100111000100100010011010100011111101000011101110111000001110010111100
0000110000001110011101010010110010001111110001101101101101011111010100001100101101010010001100111101
0100011101011110111111111110001011101110000001101101011100010011011100111110101101010000100000011101
1011100010110100010000000001110011000001010100011110110000010100100100010100100100101100100011111101
1100011110010001010011100001001100100001111011101110100100101111100001011011110001001111000011001101
1111101110100011110011111101001100111101000010111101111111000000011110100010101011100010100100001101
0000010100010010111111000011010100100000101101010010101110011101011100001011110010010001111100011101
1110010100100000010001001100000001011101101111111011101111001110100011011100000011001110101101011101
1011100001000100011101110010100011100010011111110100011110010010011111010010111100100001001110001101
0011000000100000100011100011101110111011110011011110010000010100001111100100001101000001010010001101
1111010111100111011110001001000101110110101000000110010111001001001001000001000000001011111111101100
1110001111101100001110000010100011111111111110111101110011101111010010001101011110010011100000011101
0011100010011100011110011111000011111111001101100011111101110100011110001110101101100100010100101101
1110001100111100101100111011111100001100101111101111000100011111101110111110000000110000001110011101
1111110011001111000011001011110001000010101111100100101111001101111111100000000100010000001101111101
0001000001011111000100001100110000110011010010100000110000100100100001001110010100101100100011111101
1011110001100000001111010100000100001111001111011110111100100001011111111101011101001101110000101101
0010100011000011000011010100010001111101100000101110001101000100011111110100000100100010001101101101
0000100000100011101101100011100011111111110001001111101111010010011111101011100011110011101110101101
1101010000000011111011100001110011110001001111001100110011011101110001000010100001101100111101011101
0011110001111100110011110000111111111100000100101110110010001011110011101111010000010100100001111101
1111110011011110001011101101100001010000100000000100100000111111010100000010010001010001011011111101
0000100100010100011111001011100011010000011011111100011100110001001110101110100011010100000001001101
1111001111001100100001001101001011110010111101110011010011110011010010100000001111100001110010001101
1100110001101101011111111100100000001011100011000000100011010011011111001101100100101110100000001101
0011100001010100010001101110111011110001111111101111011100011110101011111110110000100000101110101101
1100101111110000001100101101011011101110111101101110000001110011011101010000110010101111000011111101
0010101111011101000011110010001101000011000011000010010011111111010001101101110011011110000100001101
1110111110000010100011110100101111111101110011001100110001011100111111111101111011100011011110101101
0001111011100011011111001100001101100100001100110000011100001110011111010011101100001110110011101101
0001000100000010111100000011011111000000010010001101111101111110100010001100001110000010000000101101
1111100010011110011110100100000000111100011101110100001100000011000000100000110100010011010010011101
0011001100100100000011010011011100111101101100100001110000101110110000101100000100100001111100101101
0000101111100001001110110100100010110100000010111100000100011101101101001011110000111110110011111101
1101001011111110110001111101110001111110001100110010101100100000000100011110001011100001011100101101
0011001011101101110001110100100010110001100001010100100011010100001100101100011101111101000010111101
0011011100100100001100100000011101010100011100011101010100010011000001100010011011101101001110111101
0001101110001011100011110000000100000100100001000001011110110000111110101111101110000011011101011101
0001000100010010111111100001100010001101010001111110101101011100000011011101010011101110000001111101
0100010100000010011100110011000010011110011011100011011100010010000001000001110011110011000001111101
0010110001001111110011100100000011110010100011000100100000011111110000000000000001000011010011011101
0011101101101011111110010010010010000001111111010001001110101101011101000010100010110010000010101101
1100010100001101101101111101100010000000011111111011110010010001011111010000111100101111111011111101
1100110001001101011111000100001111100000100001101011101100110011010001100010011110011110000000101101
1111000001110001111101101110100000111111101100001011100011010011101101011110111111001100110010101101
0001000011101110000001101110001101011100100100010100101100010011111111010011100010001111011101001101
1110111011101110101111011111110011110011110100101110011101111100011100100001001100111101001111001101
0011111111000100011011110011011110110100000000000100100000000000001011111111100011010000000011011101
1110101110100011110000000001101011111110100000001111011101011111110000000100100011100010101110111101
1100101110100000110001011111010100011111100001100010011111100001110001100100010001110001101101111101
1111001011101100001100010011111100001110010001011110011100001110100100010000111101011100010100001101
0010110011110010010011001110001100000010110000000001101101100100011110010011101101111011111011101101
1101001110001011111011110000010001011011111101101110101011110011001100101100110100100000001101111101
1010001101100011000001001000100111101110010111010110010011010111010010110100111101111000111011101100
1011001110111001010111001010000111101011001100010111110011011110111011010101111000111111001010011100
0000011111010011111100011100110010100001011110000001110001100001010100000000001011110010011111011101
1111101111000011000010001110110011011011100100001101110001110000000011001101101100101110111101011101
0011011100101101010100011111000010100100100000010011000001111110110000100000101111100000100001001101
0001011100101011110000100100011101001101100000100100010001101101001101110001111101101100010001111101
0111101111101011101000011111000100010110000011110110111011110000100001000010001110011111110111111100
1110001101011100011101011110111100110100011110000001000011001110011111100010101100011100101011101101
0100000000111111010000001110010001011110100010100000100010101101011110011110001110101111110011101101
0011110000100001101101111011110010011110100100101101111100101101111101100000110100000000110011011101
0001111111110011111101100100011101001111001101110100010001000100000000010010111011110000101111001101
0000000011100010111110101101111101000000000000111110010000110000001100001100100000100010010011111101
0000000000100100001111000000110000100011111100110000100100000100001100011111111011101111010011111101
0010001111011100000001100010010001110100100000011111100001001011110011110011101011110001100010111101
1101011100000000111110110000011111100000011100100100010000010001100010001101111101010000010011011101
1100000011000000000001101111110000001101101101110000000000111100001011111101010011000000011100111101
0001100000110010111100011011100011011110110010110000101101001101101100000001110001001100110000001101
1100001111100001100000000010011111000000001110111101100010101111110100100100101111110001010010111101
0011011101010001110010100001110001100010111011110010000001011111111101100011110001100000100000011101
0001110000101101000001100010000100000001100000110000111110100011000011011110100010100001001101001101
1011100000101101111100110000111111110010101110101100100001100011100001110000010010110011010010001101
1111111011110000010010101111011101110011010011110001111110001100000000010000001101001101001101001101
0011101100100011001110101110001101010011110010010000111110010010101111010011111111010100011110001101
1110100011100001100000000010000001010010001011100011111100000001101110010001001101101011100000001101
0000100000011101101101000100010011100001101110010100101111101101000000110011010010001100111110101101
0100000000101111001101100011111101010100000010011011110000011100110011111100001100110001110011001101
0100010100010100000001110100000011011101010010111111010100100001011110111101011111001100010011101101
1100110011110001011101001111010011001100111101010010011100101011100100000011101110011110001011111101
1100001011111100100000001111001101001110100001110010011100101111100100000100001110100000100011101101
0100100011000000111101001101010011011100001011110010111101101110000010010011011111110010011111111101
0001101101101110001110010010110001011101010100000001011011110100000011011101011100100011111011101101
1110110000101100101101011011100010100001110010000100011100100000001110110000101111111111111100011101
0010110000010001000100101101111101100000101111100000011110000100101101010010010000111011111110101101
1110001000101100101000101000010110011011001100010110101100100001111010101010100100011000100000101100
0000000011001100011101101111011110011101111101101101001011100011000100000100000000110000101100111101
1111001111100000011011100100100001001100110010110001011101011011101100000001010100101101000011101101
0100000100100011001101001110100000001111101111010001010001011011100011100001011100000000111100111101
1011110000101101101111000010111100001011110011100011010100000000000011000001001100001110010100001101
1111010011000011100100000000100011111101100011111101111011101110100000011101001100010001100000001101
0011100110000101101110000010010100110001000111001100101011010100000000001000111111011101010101111100
0001111101001011100001011101000001101011111100001110111111100011100011111111101101111100011101001101
1111111111100010010010000001110000011110010010001111000100011101100000010010110001001110101100111101
0001100100101100001110011100010000100000110010100010100001110010110000010010110100101111111110001101
0001010100001111001100111111101101101101000010000000011111100000011011100000111100110100101100111101
0001101011100100010010000011101100111100001011101111101111000100101011100010010100101111101110111101
1101010011100100001101010100100001001101010000110011100100010001010001010001001101111110010011101101
0000100000101101001111001101101101111101000001000001101111001110100010001011110011100001110000001101
0001001011100001100011010000011101010000101100101110001100101011101101110000110001000011000100001101
0100000011011110101101001101010000010010011100001100001100000000011101111100000011110000011100111101
1000000001010100001000110100000111111001011010110010010001100001000100011000101111011000001000111100
1111001110100011001011100010110000001111010001010001110000010000001110111111000010110100011101011101
0011101011100010011011111111110011101110001101101111111100001011111111111111011100001100000000011101
0000100000011100100000111011111111000011010100011101101101110000000001110100011111111111000000101101
0101001010001110110000011010011101110101101111011100110010111101011011001010010110101011001101011100
1110010001110100010100011100011101101110010011111101011101100011100011011100001111010011000001101101
0010101100100001010000100000101110001100001101010001010001000011111111001100100001000010000100101101
0100101101011011101100010001010100101100000010011111011111111110111110110011000000011111001100001101
1110010010111011110010010000011011110000000000101100111111011110101100100011101100001101100010011101
0011101111110011111111001110110010001011111110101100101101001110010000001011100000001111101110011101
0011111111101111111110101100111101010001110010000100100001101101100010011100100100000001100011001101
0100010100100001010100001101110011001101011110011110111100000100101111010000110010001111000011001101
0011100010000001110000110011101111100000100010110100101100011101111110111111010011010100101100101101
0000110100001110100001111111110011010001111100110100100010010011000010000010111100110011111100101101
0100001101101111101100100000011111101110000000011110000000111111010001010001001110010001011100001101
0000001111111011110010110000110000111110100010010011010010000001010000111111110011110100011011101101
0010101100001100111101110000100011010010000001110011110100100011001100010001111101001101010100001101
1110000001100001101101101011100011011111010011101101110000111101001110110100101011111110001111111101
1011100010100000100011110001000011101111111110111101001110011111000001011111011111100011100011011101
0101000101101100100100100110101101100100111011001101111111110100100110100010001101101111110101111100
1111011100111101110000001111000010001101010010000011001011100010101110010001010010011110101100101101
0001111101101100100001110100011110000001101110100001011110010000011100010000101011110010010011001101
0011110010001110010100001111101111011100010100101011100010101100011100010100011110011101000011011101
0011000001100011101101011101010010000011110100011111011110010100101110010100001110000000110010001101
1100100000010001101110001100111110010010111111110100000000101110000000000010001101001100110010001101
0010100001000010000100101011100001110001111110001111101110110100000010001111011011101101101100111101
1101000000110000011110101111000011100011101111110010101011100010111110100010011110100000101110101101
0100011110001100011011101100111110011101000000010010101101001111001111001110010100011111011101101101
1111111111000001010011011100010011011101001011101101000011101111011110011011101101011110011110111101
0010100011000001000100011110001011111111111111001101010001100000101101100011000011000010111110101101
0001000000011100000010100011110100100100101101100000011100110010000010010000110000001011111100101101
0000101110101110001101110011000011000001111111100010010000110010110100000011001011100011000000011101
1100011100010000100100100011100011001100110000111100101101000010001100111110010001101110011101101101
0011010100011100011011100100000000111110001011110011011111000000001110110010011101000010101110101101
0001111101111011100010100000100001101111000000010001111101011100110001011101011111001101011100111101
0011011101010001010011110001100011111110010010000000110011100100001111010001100010011101101101101101
1100111100111101001110100011110001010100001100001011100000110000100001110011111110100011100000101101
0001010010010000111111100100000001000001101100100011011111100100101100011100101110010010011101001101
1101100010000011100100001100111111111110101111011111110010100001011100001111000001001101011011111101
1100101111011111111101111111110000111101100010011101101101010001010100000001100000111111100001101101
1101010011110000001011101110011110110010011101001110110000101111011110010000111110001011110010011101
1110101101100000010000001111010011100011111100011110011011110001100000011011100010101100111111101101
0000011100011110101101001011111011100000001100110011001101100100100000101011110011011011100010001101
1110100001100000011101010000110100100000101100011110101100110001010011011100110001000000111100111101
0000101111100000001100100100101110011100000000011101010001000011111111111101011110001111110010111101
0010000010110011000010111111101110001100110000010010100001001101111101001011110100010011001110001101
1110011110111110111011111101100100000011000011001101111100101011100001000010011110010011010011101101
0010111101011011110000000010010001010010100010101111000100101011111101111101000010011111011101011101
0011010011010011011110110001100001000011011110010000001111010001110001001101010010001011101111101101
0011101111000010000011110010111100101101101100101111000011111110010100000000111100110010110001011101
0000111101100100101110011110010100000000111110011111011111111100111110010001100000100011011100111101
1110101100100011101110111111001111011110000000000011011100010001111011110000011111001111001110001101
0011110000100010001100001101111111010000111111010001110100100011101011111111001101110010101011111101
1100001101111101000001110010110001100001000001100001010100001100101100101100100010100000001101101101
1100000010010110000110011100101011000101110100110011111011101000100101000011000010100100000011101100
1111010010110100000001100001111111011111110000011101110011111111010001010010001100011011110000111101
1101010000010000100000010011101100110011010010110100011101011101011101101100010010010001001100111101
1011111100100010110010111100100011110001101110110001101100111101101100000100000011100010101100101101
1001100111000000010100011001101001010010011011010101010010010011110111010001000001101111110011001100
0000100001011111000100000000010100000100011101100001001011100100001111110100010000111011110011101101
1101111101010011110001000001100011000011010000100000001100000100001101100010101101111011100010011101
0010000010110010011110001100111101100000011110001100011011110011010010010010111110000100001111111101
0100000100010100000000101110110011001111010100100100001101101110110100001011100010010001011110011101
0010010001011011111011111111110000110010110001000011101101010000101110011100000001000000010000011101
0010000000101110111100001111111101000001110000011111101110100001111110010000100000101100101100111101
1100110001001111111111011110100001010001010011000011101100001101001110010010011110110100010100101101
1110110011111110100001001100010011001011101111110100010010110011000000110011110000010010110011101101
0010101111001101100010000010001101000100000011000100100001011111010001010011111101100001110011101101
0000100000100011111101101111011110001101010000110100010100001101101101101110110001011101101101101101
0001010011010100100100001111101111110001010001001100110010001111101110111111001111010010001100001101
1011110011101110010010001110011101111011111111110011101100101100100100001100011111010000001100111101
1110100100100000010000001110010010010010111101100011101100000011100001100011001101110001001101001101
0001001111111100000010010010110001001011111111000100100010100010100000110000100000100000000010111101
0001101111010000000000011101011100111111100001011111001110101110000011001101011111000010011011111101
1100110000100010100010101111110000001011110100100000110011110001110100101011111111100100001101111101
0011110000110011111100101111010011110100011101110100011110111111001111011101011011101011101111011101
0111010000000011001011000111101011111110010001011111101101000011001111101000111110001100001011001100
1101101100101100000011001100011111000000100001101100011111000000000001101110100001111101011110101101
0010011101101100010100010010011101000011100000010011101110111110000001101111011100101101100100001101
0011000001111110100011111100110000010010011101100011010011110100101111000011101111110001110010111101
0100000010000011100010110100000000101100110000110011011110111100010000001110111100000010011110001101
1011111111000000111110111100010100000000101100111111101011100100000001001100111101110000101110101101
0010101111101110000001100010010010110010110001101110011110010000000000010001101111111011100011101101
0010100000010001000100001101101101001111111101010100101100110100000011101111010000010011110010111101
1111101011100011101101101101010000010000000000101100010000110001010000100010000000000100010010101101
1100111100001101000001110010110011000000100001000010101100111111001111101101101110110011101101011101
1100000001101101011110100100000010010000100000001110110010100000101111000001001101001111010100001101
1110100000010000101100100010100100010001111011110011000010111101111100000001010010000011111111111101
0000001011111100111101000000001011111100000011100100100001000010111100101100011110000011111100111101
0110011100010100001111111100111100100010100000101110000000000111001100010011000000000110111001011100
0100010010101110011111010000100001111111010001100011101101011111010001100100011011111111110010111101
1100111110100100001100011111011101111100100010101111011101101101111100110011100001010000010011001101
0100100100010001011101111011101110001110111100101111000011011101101110010001100010010000000100101101
1111001100011100101101100011111101111110011100011101111101101011110001111110100000001101010010011101
1100100000100011011101011100110000110011101100000000010011001111101101001110001110000011101101101101
1110100010011111111110111101000001010100101111101101011100011011110010011011110000111101010001001101
1111000010010011111011111110100001101101011011100100101111101101011110001110101011110100010001011101
0011100011100010111110001101000011000100000011100100001011100000010001101111100100100100100000111101
1101101101111100011011111110111011110011001111100010100001111100011111110001101110001111100011101101
0011000100010010100100100010101101001101100010000001110001100011000000100011001100000011000001111101
1101101101011100110011101111101111101110010000110100100100101101010001001101110011010001011110001101
1111111110110000000100101110000100000001101111101100100010010100100011001110100011010010000011001101
1101111111001100100001111100001100111100100011000100100100000001000000001101000011111110111110001101
1111000100000001111110001101100001110001111111111111111101111101001110011110010100000010010100101101
0010000010010100010010010000111111000010101110010100001111000010101101100010101011110000010011001101
0011110010000000110001001100111100101110111110110000111100001100110100000000001110110010110011101101
0000000100000000111111010100100001101101011111001101110001110000100011000100011100101100010000001101
0100011001000010000010000110010000001000010101100100101111001011010001100110000111111001000110111100
1111011101011110001101110000111100000000000100001101000100101110010100010010010010101100100011101101
0000100010011101000001010100010100101100001111100011011110010001101111101111001111010000101111111101
0011110011101111000010001111101101101011110100000000000010001110000011100001110010100100100100101101
1101110100000001011101110100001110000001100011011101110010111110111100101100101011100010010001111101
0010000100101111010001010001000001111110110100100100011101101100000100011110000011000001001110011101
1100110010100011000011100001000000000011100011010100100001000000011100110100100011111110101110101101
0000011110010011111101100000010100000010101100110011010001110011110000111111110001110000111100001101
0100101100111100110011100011100010111101001011101101110100101111111100101100111011100001000010011101
1110100000101101100001110001001100010100100000110001110001101101101100011110001101100001111110001101
0000111010000010000111010000110011111100010100001101001010011111111000110000111100100100101001001100
1011101101000011001101010100100000110001111011101110010011101100000100001011101111011110100011001101
0100100001100000010000010010011001110001101010011000111111010100100110110110011010101000101100011100
1111011101001100111111000010000001111101110001100000001101111110111100110001001100000100000011101101
1011101011110000110011001110101101010010000011001101010001101011110001111111010000010000011110101101
1100110011000000100011011100100000000001001111111101110010100100010001111100101111010001110011001101
1110001011100011111110001100101100100000101100100100101100101111100001110000101101001011111101011101
1011100010110011111110101100010011001101001101101011111111010100000001100001001101011110001111001101
0001110000111110010001101111100011110010101101010011101110000001101111100000110000101011111101111101
1101110010100011100001100011110010111100010000101111110010010000101111001100110100000010110100001101
0001010000111101001100110000111111011100011100100000110001011101111110111110111011110010100010011101
0001111011110100000001001100111101101101010000011111001110111101010100011111010001001110100001001101
1111100011111101001011101110001110011100000001100001010000110100011111100011001011111101000010001101
1100111101101101001100110001001100100000101101111110110001010010110001111100011100100100000001011101
1101100001010001110100011110000100001111111101101111010001001101110010011110000010111110010001001101
0101110100011000000010010111110011001100110010101011011000010111000001101010011111101100111010011100
1100010100011101011100101011100001001111011111001101101111011100001101100000011111001111111110111101
1110100100000100010000000001110100000001010001101111000100010011100001110010100011101111000001111101
0100101101101111011100001011111101000100000010100011110011010000100011100010001111110000011111111101
0010111101100000100001101110100000100000100100000011011110001111010100001110101011110010111100001101
0010001101101100110000111111100001111110011110010000001110000000110011010000000100100010010010101101
0000010000111100001111010000100000111111000001101100001100010011101011110000010010001101010000111101
0000101110100011000000111110100001011110111111101111110100101111001111101101101110100001111111101101
1100100001011111010100101011100011011110101110100000000100010001011101101101100001011101000010001101
0100100000101110001100100000010000101011111110001101100001010000010000110011101111100011000010001101
1100000001001101011110110100001111011101101111111100111111000100000001110010001101101111010011001101
1011101101010100010010101110010011101000101010111001010000110011010011010101100000001111100111101100
0111110000101001111111101111010011101011011101010110110011100000000000001100101100000110100110001100
0100011100101011111111111110110010110001101110010001111101101100001111100000001011101111111101001101
1101111110000100011101110001010100000001100100011101111110010010101011100001101111101011111011101101
0000000001011111101101101111000000001110101110110100100100011100111111010000010010001111011100101101
1111011011111101010100001111100100100010000010110011101110001011110011000010010000101110001110111101
1110011111011110011111000010010011110001111100000011011110011100001101011100110001110001010010001101
0100100100011111000001000011011011111100000000100011000000010011010100011011101100001011111100101101
0010001100001011100001111110001101110000101101010010111111000000110000111011100010011110100001111101
1100111100101100101111111110001111000011100100000001101110011011111110001101001110000010010001101101
1110010011010011100011010010110100011011111011101101111100010000111110010100010001100000110100101101
0100101100001100101101110001110001010100100011000001011110111011100001011111101111101110001101011101
1110011111000001111111111101010001101101111011110100000011010100001100100011011110001111100010101101
0011011011111101011101100011011111011100100010110010011110011110001011101101111011111100100001101101
1011111011110011010001101110010011110010011100000011111101111110101111011101101101011101011011101101
0100101111001111100001001110011100001111011111000000100010011100100011001111011111010000101101001101
1011101101101101001110111101000010010001110100011111001110110010100100101101111101101101011100001101
1101110001110011110001100000000011001101100001101011101101000100000000010000111101000000001110101101
1110110100001110000010110000101101111101110011000011001100101110101101110010101101101011101011111101
1101100001111101001100100001110011010000011110100000100000100010111011111100010000011100111110011101
1110100011111111011110010010001111101101101101011110000010011011101011100011010000001011110001101101
1111110001010000010001010001000010000001111100000010101011110000110000110001011101011110010000111101
0100011111000001101110000000110011000000010000010000010011100000111111101101101111110010011111101101
1011111110010010100001000010110000000010000010000100010000010010000011101110111110111100001110001101
1111010000101100100001010100010010110011000001010000111011100001101111001100000100000011101011111101
0010101111000010001111100000101011101011100011110011001011110100101110100011010000111110011110011101
1110000011010001100101010101010111110000100011001101101001001011100000000001000101000011101000101100
1111000110010000100000111010010111010011011111100101010001011110000001000010110000100010000010001100
0100001111010010000001111101000011000000010001011110001111000001010011011011100000110000011101001101
0001001100110011010010001011101110100000011011110100011101100001010001100100011100011110000000111101
0010100010011111110011001111111101111101000011110001110100010001001110001101010001111011110010101101
1011110001110011111011101101000001000001100010011111111100111011110001000010111101110100001100101101
0100010001110010100010010001011111101101111101011111011111110010110011101100111110110011100000011101
0011010000100010000011011011100011011110101110101101001111100000110000000100011111110100101101011101
1101100010000010100000100011111111110010011011110001000001100001101101110011010000011101001110101101
0100010011111101000001000011101011100001101100100000101101011110011111001011100100101101000000011101
0001110100010110110111000001100011100101000110110000100100110100000100011110010010001111101101111100
0011110001000100011111111110000100000011000100100001011110011110100000110000101111111101101111011101
0011100011011100001100100011101011110001000011111110010100101101101110011111110100000000110010101101
0010101111010001001110100011111111100000110011000010100000110100001111001101011110111111110010011101
0001011111000001101110110100001110001100010011110010011110111101110000101110011100011111010010111101
0000111101110001000100100001101100100100011111000010100100100000110010010010101110010010010001011101
0010001011101011100001001100010001101110110000111011110001101111011110101101011111100011001110011101
0001101101001100111110101100101101011101001101010000001101100001101011111110111100101100101101001101
0010110011010000111110101101111110000000000000110000010011101011110010000011001111001110101011111101
0011000001101101101110110011100110001010101000111001110010011011011011110110111111100100001111001100
1110000100001101001111011100111100100001111101001101010011001100000010101101011100000000110000011101
1100111101100000010010110100001100111101010000010011101110001101010100010001000001100000101011101101
0011101111101111010001111110010011000000011110010100101100110010110000110000001100100011100001001101
1101110000111110100001001011111111000010100100011111111100010100000011000000110000000000100100001101
0010111110011101100010111101111100100000101110011111011110101111100100010011011111110000010010011101
0001101011101110000011010100010000100001000011010010001110001100110011000100010100000000111100011101
0100010010101111010010010001010010110000110000010100010011110001100000110001110100100100100010111101
1111011011111110101100001110110000000010001111001100000000000011001111010100011110000010111101011101
0011101110110000101111101011101011100001111100100100100010011101001100100011110001101101110011011101
1101100000011011101101001101010000010000011110011110010001011111111011100001110000001110110001111101
0010000000001110010011001111001100100000100011001101110001110000110011100011111011110001010100011101
0100011110001100000011110010110011001101101110101111110000010001110010110000000000101110111100101101
0000111111000010101100010001000100101110111101111101000010110100011110101110000100000000111011111101
0001010011000100100100001100011100000011001110111110000010111110110001101110100100000001000100101101
1100111111001111110100010011001110111101010000110010110000001100111110000000010010011110110001101101
1101100001110100010001011101010001001101110000101110010100000000100000010001110100101111111101011101
0011101011111100110000001111110100010100011111111110000000100011100011010001010000110100001110011101
1011101011100011001101110011010010111101011110110011010011111101011111011011110010110010100100001101
0001000011010010010011100001111101011111100010100000000011011101010010101111111101000100010001101101
1111010001111101010000111110000001001101001101111101100011100100011110101110010010000011110000001101
1100011110011101100011101100001100100001101100101011111110001111001101010011110011100001001101001101
1111011011100011011110111110110011001101011101110000010000010011101101110011110000001100110011011101
1110011110000100101110101100011111001101110001111100011111101110010010011100101110100100100100101101
1100000010101101110001111011110010110100001101010000101111001111010000100100101101000100010000101101
1101001101010100100010101101111101111101001110011100101100011110011111100001001101110010001110001101
1100000010110000100100001111000011100001000000000010000001101111000100011101001100110011001100111101
0010101110011111011110100010010000011100001110001101001111001100110011011101000000111111001100011101
1101100010110000110000000000011100010011100011001111100010110011110001111011111110111110000010111101
1101110010100000000010001111011110010011001111010100000010001101010001000001000010011100011100111101
0010111011111111100001011100100000000011110001101110101100000010010000101101101111000011011111001101
1101111100110000110001000000101110011101100100010011011100111110001100010100100001010010000000001101
0000110100010001001101100011010011111110001101100011011100100011010001001110010010011111111101101101
0100101111011100111100001100000000101101101111111110111101110010101110001011101110001100100000111101
0001101101100011111011101101001011111100011111000100100010001100111011110100010000101111110001001101
1011111111110011000010110001010000001100000010111111011011100011010011000010011100101011111110111101
1111000111110111001000110001001100000011110101100010111001100010000110001010100000110111001011101100
1011110100101111101100010011000010100001010100100100000011001111001101111110001110100001000011101101
1111011100010100010000101110001111011111111100000010001101111100011110100001111101010001110000101101
1101001110010100010000100100101111101111010001010010110100101111000000000100010011110000011100011101
0111011110001010010001111101111010101001010011110111110110001100110110001100111100111010110111011100
1100000010110000101101100010000100000001010100000100010000000100100000111101101110000000001011111101
1110000010100010110000101111010011011011111110000001000100001011110011011101011011101100110000001101
0011000010001101011011101111011110111101100001101011111100000011010010111111101100011111111110001101
0001110000011100111100010010000011100000101100011110101011100000011110011111000010110100011100011101
1100001100000011111101011110011101111110011100011101110001011101011101010011100100010100011100101101
1011101100110001110000011100110011100010011100010011100001011110001100101111000001000100101111001101
1110100010011111101100010010101101100000000001000011110011001111110100100001000100100011110010011101
0001001111000011100000001100101011110001100010010000100001000000010000100010010000111101000011101101
0010111101101111010100000010110000001100001101001111101101101111011111101100010011100001111011111101
0100001110010010111111110000000010001101010001001100000001001110001110111100100011000001000001111101
0010001110001101011100100000011101100001101100000000010010100001101100110010011100101101010100011101
0010111011101110111100100100101110011111101101101110001011110011011011101101100000101110011110101101
1110110011011110000000001101101111011110100100000100010000111101010001110010101101110000111111101101
1100010000110100100001010000100011011110100001101111011100001100011110101011100100001100010010001101
0000000010110100000011101110101110101011100000110001001110011111100100010011110001110010110010001101
0000101101000000100000101110111101110001001101010010010001010001101111101011111111001111000100011101
0000010101011110010010010001000010001000110000111110110110011011110000000001101011100011000000001100
1000111001111110100011110111111101001111011110111100011000010110011100011111100101000010110101001100
0001001111011011101111101000100011101100110110111110100011100110110111000001010000000101001011111100
0101110100010100111110011111100110010101010011010011011001011111010100100011101110110010110101001100
0011110001001111111101010011111011111111001101000011100100010100011100011111010000100100000001111101
1110111101010000101110011100010100001110010000011011110100000001100010101101100001010100100010111101
0010101100101100010010010100100011101111000010000000011101001011100100011100111100011011110001011101
0100011110111011111110110000011011100000101111010011001101101101101111111101100011000100011100001101
1111011101111110100000010100101101010010110000001111010010000100000100011110110100010010110001111101
0000011111100000010010100000001101100100001101000011100011000011111100011101100001111111110100011101
1110100011001100011100010000111111000001001100101110000010001111000011000100101101101111011101101101
1100100011011111100011001101000100100011011101111111000000101100000011010100000000001110100011111101
0011110011101111011101000001011111010001100010111111101111111101110100101100101111011011110001011101
0100101111110011000100010100101100111100011110110000001111100010010100101110110000011101001101101101
1011111100000010110010000000101101110100101110111101110000100100000000010100011100011101100010101101
1111100011100100101111111111100000110011101110111100100011010011000010011101100000110100101111111101
0001000000110000101100010001101111100011101011101111001101111111000010100011000100101011101011101101
0001100010000100100001101110110011011100010010110011000011001111101101111111110011111111101110011101
0100000010101111011110101110010000011100111101110000111101100000001110111111001111000010110000101101
1110100010111100111100010000111101001011111101010011000001111111000000000000110000011110011101101101
1011111110111100011110111111001011101110000000100010010011010000110100100011110011010001101101111101
0000100000101101101110100010111100001110000011010011100001000001010011100100100011110001011111101101
1111000011010010111100101011110001010001111101010011100001001101000011110011110010100100000000001101
1100011110100111011111011011000110101101100001100010111011101010110010000101100011010010101000001100
1011100000100000001011110001100000000010111101011110111011110011010100000010000011001110111101001101
0010111101000011110011111101010001000010100011001101110011010100000000110100001111001100000001011101
0000011101000000110100101111101110110010110010100001101100000000111110010001011111000001000100001101
1110001011101110111110010011010011100010101011111101100010011100110001000010010001011111110010101101
1101111111110100100001010001100100100000101101100011110010000100010000110000100100001111110010101101
1111111101000010110011111111110000001011101101101101011110011100000010101110101011101111010001001101
1101111011111111111111001100010100001101100100001100110011100010010010010010001111000010111011111101
0000010001101110110010111100000010011011101110001111011100101111010011000100101110010100010011101101
0010001111101111001111001111100000000000110100100010100001110011010100010100011011101011110010011101
1101101111110001110001011111000000000000111101111101001011110010010001111110111111010011010010001101
1100000010110011111110000010110011111111011110000000010000110100001111000011100011110010000001011101
1011110001110001010000000001011100101110001100100010100000010011101110011110000010100000101101101101
1101100011110011100011000001100000000011111101011110111101111111000001010000011101110000001011111101
1111111110101100111101101110001101111101010001000001001100100100000010010010101011110100000010011101
0010000010111110000001011101101110110000101111101011101100001101001101111110111101000001110011001101
1110101111111110101011101101101100111110010011011101101101101111110001110001000001001101011011101101
1111001101010010011110100100000001011101001100011101000001110011100100001100010011010010110100011101
0000010000001101000010100000100010010001100001011100010011000100001111100010101110011100001100011101
1000011101110111010110001100100110000110010000001100101100010110000010110111100110010011100101001100
0110011000100101001011001001111101001001111001011011111010001100101001111110100000010001001001001100
0001010100011111110000101101010011100011011101011100000001000001011111110000110000101011101101011101
1110010001110001111110101111111111010011101100101111101011101011111101000000111111111110000100101101
1110000011110001011100011111011011110011010010011100101100000011111111110100100010101110001011101101
1101011001011100010000110111010010100001110100000011010100110010111011000011001111110000111101011100
1100010011110001111111111110101100001100010100011011111100000000100001111100101100100011111101001101
0000101101010011100100001100101101011101011110110011111110110011001110101110011110110011011100111101
0000111100100000011111011011100010111101000010111100001111011110011011101111111011110001001100111101
1111000001000100010001100010110000111011111011100010000100000000100011111101101101100010101110011101
0011101110101110110000111011100010010000010000101101011111100001010010011011100000111101111101011101
1111000010101110011110010001000001011101001011111101100010010000111111010011111100010000100011001101
1011101011100010110100000011111110010011110010100011100100001011100001100010111100010011000010111101
0010001110011111000000111101000001110100011011100000110011000010111111010001111111000011010100101101
1101001100010001110010011111111110100011111101111101011110011111000100000010101100000010100100001101
1110000000110001111101101111110100001110111111001110011101110000001111000100001111000000000000101101
1110110011110000100010001100010011010000011100111100000010101111010011000000110100000000001110001101
1011110010100100011101100001111111101100000011011101110100010000010000011101101100000001110011111101
1011110001110011001110001110111011101111111101000010101100000010110011010010110000011110001100111101
0001110001110000110010000000100010010010000001000011111100001111100010011100000000011101001011111101
0011111110011100000001100000011101011011111101100100000010010011000011010010111111110100010010001101
0011001011111001100100101011110010110111011110111100101000110111011000101001010000000000010101011100
0011110001000011100000001111111111101100011011111100010011000001111110101111111111001111111011111101
0001111011110001111111010100001100100000010001010001000000100010101011101100110010111100001100111101
1101000010101100101011110001110010110010011110010001100011011110110010011101011110011111000100101101
1100001110110100000010001110111110110001110000110010010010010011010000111100110010001111110000101101
1111001110001100010000110001001110101110000001001111000100100100100011000011101110101110001011111101
0000010000011100001101010010000100000001110001111111101011110000100011100010010010101110010011001101
1111010010100000110100010000001011110100101111101110000011101101000011110100100010010000011101011101
1101001101101111100001000011110000000100001110001100001110111110011111000010100100100010111100011101
1111000100010001100001111101111110110010010010010001101101000011010001100100001111110011010100101101
1101010001101011100001001100011101011110110010111110100011101111010010100011111100111101111100011101
1101101110110011010001010100100000010011010010100001000011110010000100011110010100001101001100001101
1100010011100011111110001111101100111110110010011100111100010001011110011111100100100000010000111101
0100000000111110100011010100001100111100011100011100001101101101110011000010110010111011111111101101
0001110001110010000010100011010001111100111110001111001101100010100000001111110100001110101101001101
1100111111110000011100010000111101001101110001000100101101110010101110011101010000000011000011011101
0100001100001110100010101100001101111011100010000001100011111111110000101111111011110000111111011101
0010011110001101011011110000011011110010011111011100001011101111100011101100110010001110110000111101
1011110100011110111111111011110100101101010010100001111101101101000011111111111011100100100010011101
1110001011101011100001111101001110011011100001101101011101000010011111101111101101100010111101011101
0011000100001110010011110010000100001100001110100100001110000100011111010100000001010001000001001101
0001110010101011101101000010010011101101100010001110000000101101011111010010000010100000100010001101
0001011111111110000100010010011101010000010010010000001101010010100010001110101011101101000011011101
1110110010010011001110001100100001111100011110000100000011000011100100011110110100010001001100011101
1110010001100010101110010100011101110001100100001101010100101110011111100100011110010011100100101101
0000101100100000100100001100001111000001110000010100101011100011010000111110101101011100001111011101
0011000010011101111011110100011110001100001100000001100010110100001111000001010000010010000011001101
1011100001111111100011111101001100010001110010111110100000100010101110001101101100101011101101001101
0011110001000000011011111100101110011101100011010001101110011110101110001100100001000001110000011101
1101001110001110000100000010011110101011101111100001111101010100010000000000111110111011110000011101
1110101100100100000010110010110001010011111111100000000010100011101110100001010100011110101101011101
0001011100010001101111010100011110001100110000001111111100110001110011000001011011110100011111111101
0000100010010000111101100011010000111011111110110001010010001100010000000011010100010000000000101101
1101010011101110001101010010110000111100011111101111111110001011100010001011100001010001100001101101
0000011100010011110000010011010000011011100001101110011011110010011101111101001111011111001110001101
1101110010010001111111001100010011111011101110000000101011110000111111000000110100010010100010011101
1111101100011110010010101100000001010000011100011111000000000010010000111101100010101111110100011101
0011110011010011111110111110111111111110010100100001011110100011010001001110101101101101111101001101
1101110100001111010010000011101101110100000010000100000001010010101100001111110000011101000011001101
0011100011101011111011100000111101011101110011010100011110111101110010010001000010010000101111101101
0010000000000010111110101111001111101110001100100001111101111011100000000011001111010011110011011101
1110110001101110100100000010010011100010000000000001000001011110101110101101010000101110000011011101
1111111100010000001011101111010100000001101011101111001110101011101110010010100000101111101100001101
0010111111110011000011001101110001001101001101011011101101000001010011011101001100110100101110111101
0010010100010000111111111011101100100010000000001101001111101100000011111100000100010001011101101101
1101001101111100000011001101000010000001110000100001101111101101110011110010011100111100111100101101
1101100011101101100000110100001110110001101100101110001101110010010011110010011101000000100011101101
1111110001110001111100101110101100111100001110100100101101110000111110010011101101101011110011011101
0100101111111111110100010011011100100001010001000000110001110100100000001110101111011110000100011101
0000000010110010010001101011101100101101101110000001100010100010000001111011111100100000110011001101
1101111011101100111111100111110011000110000001011010110111110011111011011110001000010000000001001100
0001110111100111101010010001011101110111111011010110100000000010101110101110100110101010101110111100
0100101111010000101101001110110000111011111111000001011110110010101101001110100000010011101101101101
0001011100100011010101011110010010000111011110110100000101001001111101001100101010111111110011011100
0011000011101011100100101100000010000011000011010011110000000001111100111100110001000010011110101101
1100011110101100000011100000011110110010000100100010001100000011000010110100000011011011100100001101
1101001100010000111110000100001100110011010001111100111110010001011100100000001111110001100100101101
1100001110100011101111011111010001110011111100110011000001000100001111111110010011100010011110101101
0100001101011110000000010010101100110011100010100001000100010010001111011100101111111100000010001101
0000000010100100011110011011110100011101000010110010110011101011111100001100000100001111101100001101
1100011011110000010000010000011011110100000001111101001111100100011100000011100100000001010010001101
1110011111101101011100010100000011000011111100001101111110010001101101011011100011100000110001101101
0100100100001101001110110010010100010011000001100010010000101101110000110001001110010001111101111101
1110101111001110000001111011100010000100101100011111001111010001111011111101001101110010100011011101
1110111100100001101111110000111111000011010011100011100000101011100010010010110010011100101110001101
0000011111100000100000100000100100001111111101011100100100101110011101111101011111111111011111101101
1110100001100011110011000011101110111101000010100010001100010001110000111101000011000100101100011101
1110001110010010101100000011011111100001000001110000100010011100011111000010101111011011100100001101
0000111100101111001100101110111100100010010000000011001100101111110001101100010000010100010010011101
1110110100100010000000011101110011110100001101011111000001110000010000110010000010100001101111001101
1111101100111100011100100000011111110100010011100000000001001111011101111110011111110010111111101101
0011000000100000101111100100011011110011010000110010101110100011010100010011110001100011101100001101
1011100100100010011101000001100100101101001111110010100010001101101101001101001110111110100100011101
0100010100100001110100101110000011100011111110000001000001100000111011111101101110000001001100011101
0100101100111101110010000001111011100100010001011100110010011110101100111011110000111101100000101101
0000011100100001001110101011110000011101111011101111101100100011011110010001100001110001100010101101
0100000000010000000000011110001100000001101111111101111100110010010001110011101110101111000100001101
1110111011101110100010111110011110010011101111011110110011000001010000100001111110100010001100111101
0100010011001101010010011110001111110011010010011101011110001111000010101101100100010100100100011101
0110010101111100011011110110010111010100110101110111110111110010110010100000110111000011010111111100
1111001110010010001011111100111011110001111110001110111110001101101101011111100010001011100000101101
1101000001110011011111001110001011110000100000101110011101000000111110110001010001100100000010111101
1101101111001110101110111100011111000010101110000011000001011111100011101011111100101101001111101101
0000000100000011000000010111010000110001110011101110010100111111011111111100001011110001010011111100
1100000000011011101101111101010011000001001101011100110011000000000011110010111100100000100011111101
0000011110001110011110100000000000111100010001001110101101101101010100011110000000110011001100001101
0100011100111101111110001110001101010010101111010010101111101101111110010011100001111110101101011101
1111100011001101101111010010001111001100111101010011111101001101111011110011101111100001011011111101
0001001110010001101101011110100010000100010100010011000010110000101100001111010000001100001110001101
0100101100110000100010111101001111011111110000000001111100000000111110111111001101100001001100001101
0011100000000011000011011111100001111011101100101100000011100001110000110011111110001100000000001101
0010001110001101111110001100010011000001010100010010111111101011100010100010011111101110001101111101
0000001011101101110000000000011101011100111110011110111100000001010000101111011110110000001101001101
0001011100111110011110100010010010100001100000010001010100100001101101110010101110111101100000001101
1011101101100001011101111100010001010010111101000001111111100010100010001111111111010100010001001101
1100000110100000000000110111000100011000011010100001111011111010110100001011111010000110001001101100
1111010010110001011011101101100010010011110000110001010010101110100000010010010100100011000011101101
0100011111011111110010000100101101000001001111010010011110110010000011101101111111101011100011101101
1100110100011110100000010100100000111110100010010000001100111100100100000001011101000011000000001101
1110011110111100011011100000101111011111100010101111110010011110001111110001001011100100010000001101
1011100001101111001110010100010010111111100100101110010010100000101100000001001110110011111100011101
0011101110010001101110000010111101010000010011101110111100011111100011001011101110101100010011001101
0100101110001100111111111111010010101100011110101110110000100011101110010000011011110010111100011101
0001011111100001100000101111001100111100101100100011111101000010111100001100110011111100101110111101
0011000000101110010001111100101110111110101110111100010000100000100011111111001100001100010000111101
0011011110111101111110100100010100000000001111010000100000011100010010000001000001011110010000101101
0000010010010001111111100001001100001110000011110010111101111100000100100000100000011011101011101101
1101110000101101011101100001001011111101110001010011100011111111010010011100000011001110001100001101
1110101110010011010011011110100000001100101110011011101110001101010010110001100010000011100001111101
1110011101101011100010000010101101010010110001100011010011110010001111001110000100010000110000111101
0011100110000100111011010111000100100011011000010100000101001110011111001011001101101110001110011100
0000010010110010111111111110111111100010101110110000011111000001111111010011100011011111111011101101
0000111110100001011100000011110001101100111100110011010011111100111100011101010000110000110100101101
0000100011011111000000010001001101000100010001111100011101100000111100101110010000000100010011111101
1100001101001111101100001111111111101110011101010001100100010011111100110010101110001101010000011101
1100001110010100001101000100101100110010000011111101111011101101000010101111101110100100011110011101
1111110000100000111100000100010011110010101100001111110001001100101101110001011110100100101101001101
1101001011110001100100100000001111011101110000000010101011101110111111110010111111110100011110101101
0000001110110000010000100001011111110001001101000000110010110010110000100000011011110100100000111101
0010101110011101111110110100100001010001110011000001111110010001001011101110100100001100101100011101
0100010011101110000000001100001111110100101011100000110000111111111110110011011100111110100001101101
