0010001111011011100100001101
0100111111100100101011111100
1011100000110011111101111101
1001010101101110111110001100
1011011000111110111110111100
0100100001111100100100011101
0001110011110100011100001101
1000011001011110110110111100
0100011001001111101100101100
1101011011100000000000001101
0001000100010011101101111101
1011110010001110011111011101
1100010000011110110100101101
0010000111001001001111001100
1011010010011001010100001100
0011011100011111011011101101
1100000100110011100011101100
1000011111000100000010001100
1001101001110010010001001100
1001000111110100000010001100
0000000000001111101001011100
1110100100011110100100001101
1011100111000100101000011100
0100001101111110011101001101
1011110000011100100011111101
1111100101101110001110011100
0100001100011111101101111101
0111110000111000100010011100
0001000100010010101101011101
0101011010000000111110011100
1011101111110011101100101101
0010110110010010110110111100
0011111001110001011101001100
0111010100110110011011011100
0001100011111011111110101100
0011101110011111010100011101
1011011111011011010000001100
0100100010001111010100011101
1100111011100100000001101101
1011101011100000111111001101
1000010110010101000111111100
0100100001101110100001111101
1111011100101001111000101100
1111010111111010101100011100
1001110100101001000111111100
0110001010010000100110101100
0111011101100001001011101100
0100100111001100010010111100
