1110101100110100000001100000111110010011100001011011101111111111001111101111000000101100111110111101
1110111101010000010010110001100000011110010000011111111111111101011100101110000001001011110010111101
0001010011010011110000100001000000000100011011101100111100000010010000110011111110100010000011111101
0111100100011111000001101011011111011001101101110101100111110000001001101110001111100110010100001100
1100100001011110010001001100110010110010011110011111100100011111110011100001100011110010101110001101
1111000011100100100001011101111011101111010100100011100000101100110011100100101101001101001110111101
1101110011000010010010101110111111100010011011111100001101000010111011110011011011110000100011111101
1011101100101000011010111011010000110101000011100010000110000000110011111101001110001011101111111100
1110101011100011011110000001110010010001010000011100111111011100101011101101111100010000111110101101
0100000001001101101101010010111100100000010100011011111111010001010001010000000010100011001101111101
0011001111011011110000011101110001110011011011100011010100000001001100100011110011101111111100011101
1111000011101111101110010011100100000000110100100000100011110100100100101101000010001110010010111101
0000000000001110110000010001000001010000010100101100010000001101001100100000101101000010110001011101
0000001101101101000010011110011100000001110011001011110001111011111011111100111101110001010000101101
0000010100000010000000001110010001101111101100111011111110100001001100000000001011101101101101011101
1101100001010100010100010010001101001100010011000001110100010010011100010100101111000000011111111101
0000001101011101000010100100011011100100010011010001001100001110001111101111000010010100011101011101
0001100000111111001111000011101100111011101111101111010010110000001100011111000001010000101101101101
0001110011010001111110000010010100100010001111110010110100101100000000000000011101100010001100001101
0100101101000001001100010010001111001101111101000100001101110010101111101110000000100010000000001101
1111010001100011010100101101111101010100100000111101001101001110100000110010000000100011010001111101
0010011100100000010000100011000100101110100000101110010011101111110000000100011111001101111100111101
0001011110001100100000101100010001011111100001111100000000000100100010011111000000011110100010101101
1011100000100000110011111101000011011101011111110010011110010001110011111011100001010001101111111101
1101111111001100011111101110010000010000000010010011001111000000001011110011000011100001010011001101
1110001101011101011011100001000001100001110011001111000010101101001111011111110010111111000001101101
0001011110110100101100101101101100101011110100010100010011110100011110111100001101001110001101011101
0001001000100011000111000011000110110100100110010010000010000011111110001110100001010101000010111100
0100010001011101110000110000101101000011101110110011101110000001111110110100000010001111101011101101
1110011110101011111100010001100100101111000100000001111101110001001011101110100011000010100001001101
1011101111110000000001110001110010100001100000000011111111000010111110101100000001000001101100101101
0010011100000011001100110001111101110011110000011100100010011111000100011100001110101101000000011101
1100011110110000010000001100100100000010010011111011111101101100111111010011001011100000100000101101
1101011011111111110011011100010010101100110011110000000001010011110100100000011011110000111101111101
1100011100001110011101110000001100010010110001011011100011101111100001101011100100101111001101101101
0010110011100001100001111100110001110010011111101101001111101100111111111011100001101101010011011101
0010010011001100010011010000100010110100011100011111011011101110100000100000100001001110110000111101
0001110011100100100100010011010100000010100100101101001100100010001111001101110011011011100100001101
0010110100100011000011001100111011100000101111111101011110111110001011101111100000111011110001001101
0011101101011101010001000100100010000100100100101111100000001101101100001110010000010010001111101101
0000011011111101000100011100000010001111000001000001010011111100011101111011110000001110000000111101
0000010000011100100010111100000011110010111100100000100001011111100100100010000100010010001111101101
0000010001001100000001000001100010000011100001010001010000111110010011111100000100100011010100011101
1101010011110011100011100001111101110010011111110011111101000100100100001110100000101101100010111101
0000000000001101000000011111101101010011011100101011101111011110001011101110101100000100100010101101
0011011111001111011110111111001101100010101111001111000100011101001101010100000010011110110000101101
1111011100010011011101001100101110000001000000000000010010001111010001000100001011101101000000011101
1101010000110011011111010000101110010000001110011110011011100001110100100100010001011100101101101101
0000010100000010010100100010001101100011110010110001010100010011010001000010100100001101101111111101
0001010001011111010010010100100010000010011110100010001110110011101111101110000011110010100100001101
1110000100010010011111010001110001010100100010001110000100010011011101100001001011100100001111001101
0100011110000000011110100101001010011111100011011000100000000010110111001001001001111101010110111100
1100001100000011000100010011000000000000100010010010011110101111001011111101001101000000111100111101
1110100011100000001100111110001100111101001111101110101110110000110100101111010010011011100011001101
1110100100011110010100001101110001011101100010110000001101001110111110000100010000111111011110011101
1111001111000010000010000011101100010010011101000011000100010011011100101110010010110011110100011101
1010011110010011000000101111011101110111111000011110101110001000100000011010111001100010111000101100
0100010100000011101100110100010000000001001101001110011100001111000000110010100100001011110010111101
1101110000010011111100110011001101110011000011100001001110000001010000110010100100000100011111111101
1100101100100001010010010011011111100001101110100010000010101011100000011011100001101110100000101101
0001000001111111010010000000110011100010101011101111110100010100010001111111011111011111011101111101
1110010100101101001100100001110011000010010010100100010001010010111011100010000000101110011011101101
1100011011111110110000010100001110101100001110001011110011100100011011111101011011110001101111001101
0001011101011100011110101110101110100001001100101110101100110011111110011101101011101011111100011101
0000111111011100101101101011110100101101111110011111010010001111111110010000001011100000011100011101
0011011101110101101100001111010101111100111000111100001110011110010100001100111010101001111111111100
0001011110001101010010100010010100011101001111101110011111101101101110010010010010100001100000011101
1100000010101011111111111101001110100001101111111100110011001111010010011111100000100010011101011101
0000010011101100011110011101001110011100111111000100100010001101101110110100001100101011111110011101
0010111101110011101100001110111100011100110001101111010011001110110011001110111101110001001011111101
0010001011100010011100010011011101011100101111010000000010110011111011101101110010011100010010111101
0100000001111111011111100001011110110010001011110010001011110000101101110000011101000000000000001101
1110010010101111010001111101011111100000011101100100011101110100010100000001011101001110110011001101
0001011111010010001101101110011100111100011111001100001101011011111101000000010011000000011110001101
0000010000010001110001001101100001101100100001000010101011100000101110010100100000011110001101001101
1011101011100001001111110010001101011110100011101100010001010000100010001101101110000000111110001101
0001001111001110000011001111111100000100010011000100100010111111100001110011110100010001000011101101
0000101101111111010000000011001011100000011110111110101011101101011110011011110001101111010000011101
0011001110000010101011111100001101111110100100011100010001110100000100100001100010110011001101101101
0000101110110000110000111111111101101110100001110100100000110000101110000011000000110011001101011101
0001101101101111111110100100000100000100011110111100110011110011111110011101010010111100101101101101
0010011011110000100000100100100100000001011110101110110000111101100010011100110100011101001101011101
0001001101101111000100101110100011101011100011001100000001011011111100011100111110101111100100011101
0010111111010010110100000011011100000001000010111101101101110011000100010001100000001011111110101101
0010101011100000010100000010011110000001111011111111100001110000110010111100110001011101100001111101
1100110010000010011101000010110001110011011110010001010000001011110011001110110010101100000010101101
0001010100000001010100000011100010010011010000100100010010101101110011000000110000011101101110011101
0000101100101100011011111110100001111111010000111110010011011110001110110011010001010100001101001101
1111100001001110111101111111011110111111000010100001001110010100010001011100111110011101001100001101
0000011110111011111111000011011100000100100100001110000011110000011101001101101011100011001100011101
1101000010010000100000010011010100100100001111010011001111011111010001100011001101100011101011101101
0001110010100001111111111100100000110000101111101101011110110011011100001111100100001110001101011101
0010001111101100000001101111111011111110011100110010001011101101110000010100011110011111010100001101
0000110010111100101110001110011110001111000010100011110100011110010010101110011110110001110000001101
0000100001011110011011110000100000000000100000100000101011101111110001000000011111010011110000001101
1100101011100011110000110000001111010001111100001011111110010001111100000011011111011100101110101101
1111110011010011111101001011111100110000000010010100000000101100111011111110110100001111000010011101
0010010000100000110000101101101101011101011101100011000011001101100100000000011101000001111111101101
0000100011010000100000001100011111111100001100010100001111001110110001110000010010101110011111101101
0000000000101110111101111110111101101111010001000010101100001011100001110011100000010001101101001101
1101011111111100001011110001101100101011100010100100001111001100001100011101000001001110100010101101
1010111110100001011111001101110110100101011110110101000110100110000110000001101010100011101001001100
1011111011100001110000010000111110000010110111110110100010001011110101111100110010001100111000101100
1110001011110011101101111101010001111101100010101110001111000100001011100001011111101110010010101101
1100100010000011011011111110001110000100010000011011101101001100110011001100000011000000011111101101
0001000011011101100000111111001100101101001011111110001100110000010011110000000001101100010010001101
0100011100110110100010111010001001111011101100101001011101000110100000000011000000011110000111001100
0011100001001110011111101011100100011101001100100011110100001100110001011101001101010000101101001101
1100100010111110100000100001010000101100011100110011000100010000100001011110000010001110101111111101
1011100010100001110011010011100010100010011101100001010001100000111111001011101011101101110011101101
1111010000111101100011111111011111000000001100001110101100101111111111001111010011110010110001011101
1111011110111100111111111111100000010001010100011100010010010011000001000010010010001111000011011101
0001001110010011100100010011101110101100101110101110010011101101110011110011000001100000101100111101
1011011010100010110000000100110001101010000000000011110010100110001101011101001001111110110100001100
0001111111001110010100001101010001010010000001100010110100011101011011111110101110111101110011001101
1001010100110110110110100011011101100011100000100011010001111011111100110110111001110110111111001100
0001100100100000101110101101011111010100001101001100110001010001111101011111011111111100010100011101
1100100010010001110000100000110000100010110011111110010000010001011110011110101101110100010000011101
1100111111111011101100100001110100000010101101011100010010111101111111100000001110110010001111101101
0100000011001110100000000010000001101111111100100011100010101110110011111101101101010100010011011101
0000001111101101110011100010000010100011000001000100011110011111100000100010111100001110110010111101
0011100110110001100010010101101011110001101011101010100010010111100111001001110111001111010110011100
0111000100010110001011001001101000110000011101011101011101110000110011101011010100000000101010001100
1101011110110010011100111111011100101100011101110010011111011100000100011100100011001100100000001101
0000010100011100101011111110010010100001101011101110011110010001000100010011100001111111110000011101
1100110011010010101110010001100011010000111100100100010000000011010001111111101100100100100000001101
1100100000101011101110001101111110011111101100111101100000010010011110000000010000010100011101111101
1011111111001100101101011101000100100011110100011101001101011111000100100010000010011111011101001101
0000011111001100000000011100011101000100101100010100001111110000100011101111101110110010100011101101
1110110000100001000000110000000000110001001100000100010001001111101110010010011110101101001111011101
0011111100100100011101011110100011100010001100011101001110100001011111101100000000101100111101101101
0001101110100001100010000000011111010010011110001111000010111101101111110010110100101011110010111101
1010101011001000001101000100010000000111110001111110001100100100010010011010010101111011111010001100
0011000000110001110000101101010001101011100011001011111100101111111011111111100001100100100010011101
0000010011100100001100010100100000110010100000100010000010000000010100000001101110100100010011011101
1101101100101101001111001101010010011100010001010001101111110010111101010011110100011111100001011101
1011100011010010000011110000110001010000100010001100010010010010110000001011101110101111100001011101
0001011110011100100001001011100000100010001100110010010100011111111100011100110011001101011100101101
1111101100110010001111100011011110100000110010110011110000000010001011111100011111100001011100001101
0001101101110010100010001111010011111011100000000010111101100000100001100011001101100001110011011101
0010000001111110101110110011010100001101000010101110010001101111001100100100010000111111010001011101
0100000011101101100100100010011110110011101101110010100001111100111111010000101101011100100010001101
0001101110000100010010110100100000111001000011011010010010111010111011101011000101000111111010001100
0100000010000001101100101101000010011111101111001111100100101110101110100010110011001100010011001101
0001100100011100111011101101100011110010110000111111000001001111111101110100000000100000111111101101
1101011110101100010001100000100100010010100001111110010001000100001011110001010100100010101100111101
0001000001000111001100000000110110111011101111101100110100101011010000111000010010111100110000101100
0001110010000010011011101100110011101011110001101100101101100100100100100001101011111110010001001101
1110011100011111111110110001001111101101100000101100001101100000100011111111001101110010100011111101
0000110100100001100010110010000000100010011011111101110010111100101011111101001110101011111011111101
1111101101101101000000001110011111100001111011100001110010100011101101001110011110111111101110111101
1011101101011100110000011101100011101110110001101110011111111101111111110010010010110011110010011101
1100100010101111010100100000101011100010110000000001001111001110011111101100101110000011000011001101
0001010000001111110010000010000000100001001011111111110001100000011110111111111110011101000000001101
1011101110000000010011110000111011111011100001101100000100100000100000011110110001010001010010001101
0000000100001111101101100011111101011111001100010010100001010001111110011111010100011101000000011101
0011001100001111010010111011111111100010010011011101100000000100010001011110110001001100010000011101
0110011101110110010110010101101111110001010111111101110010101010000000010011100000110001001000101100
1101011111011111000011011011100011010010001011111011101101000011100000111111010100010001110000011101
0010111110000001001100001111101100110010100000000010110100000011110000100000010100001111011100001101
0010101110010100100001111101100100001100010001100011100001111101000010001011110100101100110010001101
1110101101110001110000011011101111010010000011100001010000000001001111100100100100000100011111001101
0010010001110000100001000000100010001101000000100010010001000000100011010001111011100010001101101101
1011110011111011110001100011001101000001000000011110010001100010111100010001101110101111011011111101
1110000011111110010011101110111101101111011111101100000011101101000010101100001110110001001111011101
0011111100110100100010111111011111000001010100100001100011010001000100001111000000110010101100001101
1101000010100100010000001111000001100100001100011101101100000011010001010000000010010010110011001101
0010110010011110101100111110111101100011001011100100011100010001110010100010000000011111010000001101
1101101100000000001110110011001110101100011100011101100001001100000010100000101011111100111110111101
1110101110100100001100010001110000000001100100000100010010011110010011000001110001111100001101001101
0001100001111110001111100010000000111111101100101100100011101011100001101110111111010001101100011101
0100100001101110001111101111101110111110001111101111010000000100010100000100001101111011100001011101
1011100011111100111101101101110000001101000010010010011101001110110011011101010010101110001101011101
1000101110010001101001110000010011011001011011001111101001111111101110011000110110100010110001001100
0000000001011011110010000000111111110001001110011110001011100011001110111101010001101101010100011101
0011000000101100110000111100010000100000011101001111100010000010010010100010100100010010100000101101
0011100100000010010000001011101100110001010100101101011111100000111100010100000011110100101101001101
1110000100011011001001101001001001111000100100111110010110101111110000011101110100000101010111111100
0001101101101100001110111100101110100001110100010010110100000001111111100000100100010011000000011101
1111111100010001110011111110011101111111000010100010101011111011111100000000010000111100001111001101
0001111110010001001111111011101111000001111101011110000100000000000011011101110000000011000011111101
0010000010111100001111011100001111111110010001000011010100010010111011100000001101110011000000001101
1011101001000001000011010001101100010001001111010100101011101011111010001111001101001110000011001100
0011110011010010001110101110010100010000000001110110101110011010000000101011010111110011111000101100
0000110000100011101111010100100100100100010100101100010011001101111111000000001100001110110010111101
1111101110000000001111000010010001001100101101010011101110100010101100101100010011101011110011001101
0000110011101110000100011011101101100011001111010011001100010000000001001110011011111011100001001101
0011100010100010100001101111110001001111111101011100001101111011111110011011110001010010101100101101
1101111101111101100001110001100100011100000011011101101100101011111101010001011011110011100000001101
0011000001010000111100011101111111110100101011111101010000010011011101110000101110010010110010101101
1011101011111101000000001111111011111110110010011111110001000010011101101110000011111111001100001101
1111001110100001000011001101100001001100101100111011101111011101111110011100010010110011001011111101
0100001001011111010110110011000100001101101101100110000000011001100010010111011110110000100001001100
0000000010010010111011101101011111010011101111001101100100010000100100001100110100001111011110101101
0010000001000010101011111101000011111101000010001100100010110100010100101101101111111110000010001101
1101101100001101011110010001011110100001100010100000110010110010011111101111001011110010011111101101
0111111001011111110100000101110111001110100000011111010100110001100000111110011000101110000110011100
1100001100100010101110010010111111100011011111101011101101001111110011101100011100010011000001011101
0100011101110000100000001100101110000011000011001101100010101111001011110010100010111110010010001101
1100101100101110001111011101001111111101011111111100000001101110101100000100010010011110100001011101
0001100011011011111000110100101111100000011011111110001010000110010000011111111010100101011000111100
0001000010101100111011101101111110110010111100010001110001001101001101100011111011110001001101101101
1110101101101111010100010010000000000011110001110001111111110001010100000100001100101100001101111101
1111010000110100010100011011111100001111100010011101110001101110110011100010110100000000100100011101
1101000011110100101110011101011111010001011111010010000000000011000100011111011101100011111101011101
0001101110100010010000001111111111100011011011100000001100101100010011100001101100101011100011111101
1110110100100000010011111110101111100001111100101101001111011011101110110001011100000000100011001101
1101111110010001011011100010000000101110011100010011010010100001001101011111000001101011101111101101
0100011100101111011111001100001110001111000100100100101110111111010001101101110000111011100100001101
1101011100110001111101111011111111110100001100100000000011000011011110110100001111000010100000001101
1111011101101111110000011011101100010010100010001111010010000010110001101100110011000010100011101101
0001000001101111010000110011000010110000111101000100001111101011110010101111110011111110100001101101
0000000011010010110100101101110001010001110001110001010010101110111111011100110001000000101101101101
0001110100011110000010010000100000011111000000010010011011100000111111111110001111010011101011101101
0001110010110011100010010010001011101110010100101101110000011111100100001101101110011101100001011101
0001101011111100001100011101111111010011101011111101101111000100101101010100100011011100100100001101
0001001011000001001111010111100000110001000010100001011011011100111111011000110101111011101100001100
1111010011110010000001000011110011001110101111101011110010110010110100011101100011101011100001101101
0010110000101100111011110010110000001101000011110001001100100001011110011110010100101110010011001101
0000101101000000000100100000010011010001001110001100010011001111000001101111111110011111111111011101
0001000011010001010100100001101111010010110010000010110100010011110010101110001110111100010001011101
1011110001100000011100000000100011010001110000101111110011101100100010100011011101011111101111111101
1110000000001100101101001111001110000011110001110100101110101111010011001111001111000000111110111101
0011010000011111100010001110101111010010001110110100010100100000010000011110101011100010101110001101
1101101110001110001110010100001110000100101111101111000000101100110010010011100000000010010100101101
1011111110100010010010100001110000011111100011111100111100011101111110110100011110110001001100011101
0011101101111100110000110001110010011100100000100100011101110000011100110100000010110010111110111101
0010100010000011101101111100101101000000101100111011110100001111001111111100000011000000000100101101
1111001011101100110010110001101110010011110011101000010110111101000110001010010100101010010000001100
0100011100000100100000100001011111001100000001000000001011110100000000110100101110010011000100001101
0011011111111011101101000000001110100100000000001100010100010100101101100010101101011110010001111101
0010111011110001000001011011111111010000001100100001110100001100101011110010000000000010000010011101
0011110001110010110010011100000001100011111100000010001111111100101100111100001100101100111110101101
0011101101100100010001111011100010001100111110010001101011100010100011111110101110100011001111111101
1101011011111111000001110010001111001100100000100001011100110010001011101100000000000001011110101101
1111010011110011000011011100100001110100001111011111100011010011100100000011011101011101010001101101
0010100000101111011100000100100100011011110010101101000010010001000000100001101100010010011101111101
0001011111010011111101010011000101100000010010111010010010000110111101110101111110001010110110001100
0010110011101111001101000010100010110001111110000100100011001110100100100000110100010100101111001101
0001100010101110100010101100000000011100111100100001100010001111000010000010101100000001000010011101
1111010100100000011101000000111111100000101101001101000010111011111100001110010100001111101110001101
0110000000111000011000101110001010111101010110100000110111000001000000111010001011110011101001111100
1100100100001111101101011110110010001111011111100100101100100000100000011100001101000001110000111101
0001010100011101101011100001100011001101110000111100100001011100100001100011110100000001111101101101
0011111100000010010000001110110011011100001111110010000001111110101111010001111100111100111110111101
0011010001011100101101010000111111110001010000011011101111101100001011110011011011111101100011001101
1111101101100010000001101111011101001100000000011101110100100011101111101110010100100011101011101101
1101111011100000010010011110010010110100100100010000111110001101111110111011100000100001000010011101
0100000001100010001100001110110000110000100010101110100010011100100000010001100000011101101110101101
0000111011100001100011000100100010000000010100001111000001001110101110000000110010101110001111001101
1111000011000001010010000010001011110011000011010010101110010100001111011011110100000000011111101101
1110110000100010000010010000000010000010010100100001011100010011001110111011100011110000101100111101
1101001101111111111011111101110010000011110100101110000000100010110000000000010011011111110000011101
0011111000111100101111110110111011101011101001111101100001000100011101011011110010010011010100111100
1100001110110100011100101101010001010010010000011101100010111111111011111101001011101110000010001101
0011111101110000101111010100011110100011001111100001001111011111000011010100010000101101100000111101
1110011101011101001101100001110000101101000100010010010001101100101011110001011100011110000010011101
0011010011100000011111010100001011101100100000010000010010001111110100011101101110100011101101001101
1001000110100011000000011111000000100100100001001111000111000010000011100011111101010011000010101100
0100010011100011111111001100001110100100000010001110000000000001011111000000010001001101000000101101
0010000010001101101101011001010000011100011001010011111010001010000001100111010100110010000011111100
0000101011100011011111011101111011100010001110000001110011100010001101011100010011100010000011011101
0001010010111100011100110010111110101100010000110000010000110000100100000001100001110001000000111101
1110111101101100111110001110011101000010011111101111000011011111010100010011010011100010000001001101
1100000001001100000100010010110011001101111111000000111110011111110000000011101110110011010010001101
1100101111111111000000101101000010011011110011111111100001111100001011110100011101011111101111101101
1101111101001110110011101101101100010000010011111110100011000000111011111110110100010010000001001101
0010101011110010000001101110000010000001100001011110001110110001000010101110101011100011110011011101
0010110010110000101110100011100011000100011110010000101110111111111110110100101111000011000010001101
0010101100011110111101011110000000011110001011100010101011100100000001001110010000111110111111111101
0001110010111011100010110010011110111111100001011100001111000011110010011100101011110010100010011101
0011001111011111111101010001100010000100100011101100000001000000010011100011001101001110001111101101
1011110001100011001111101101110100010000110000001101010011101101001111100000100100010011100011001101
1011110001001101010000000010010010110011001101000011011101010011010011010001101111011101111111111101
0000001111101110101100101110110000110100010100011100101100110000110100011101000100100011111101101101
0100011101010010111110101111010001100001000000110001000011110001101100101110010100000011110000001101
0000100011011011110011010011010011010100011011111011110100100001001100000010110001111100011101101101
1110111111100100001111000001011110011101010000100011101101010011110010110100000010011110010011001101
1111001100001110110000111110100000011110010000100011001110001111011100110000000010101011100011001101
1111010011011011001000000111110110100000110001101011011100011100111010010110101100010111101010011100
1011100100100011111111001011110010011100101111011110100001101111011100000010110100100010110001011101
1101010100000011100001001101100001011100000001111110011111011110010001100000000011100100101110111101
1110011100100000011100001100110000100001110010110100101111001100110010101111111011110000000100101101
0010010100000000100000010000100010111100110000011101000011101101111101111100100001011111011101101101
0000100010000100101100101101100010110100100011010011100011111101010100011100101110111111001101011101
1110001110000011001111000100101100000000000010010011110000100011100001001110111101101110010011011101
1101000010011011110011100000001101101101011110100001111011111111011101000011000100100000101011101101
0001011100110001111111010001010100010010000000011101100011101011111111001011101110110001110011111101
0000100000010011000001110011010011110010100010000010000100101100110000100011001110010010111101001101
0100011111000001010011010001101111011111110010011110011110010001110001011111101111000100000000011101
0010000000001111101100011100111111011110100000011011111100110011010011001101011100111101001111001101
0011110010101100000100000100000011000001100000001111000001110100100010111011100001000000010000001101
0000100001111110010100011100001110010011101101101101110011010000000010111111110100011101100011101101
0100001100000000100100010001001100010100001110010001000001010011010001000100100001010100101110011101
1110011111001101001101001111111100001101000001101110100001011101110001000100011100110100101101011101
1100010000100010000011001101100010110001101011110100101100011101111101010010000100010000010010111101
0011111111011101001111010000100010100011110000101111001101010011011111111011111011101111011110011101
1111111101111101100000100011001011100001011110100010110010001101111101000000010001001100011111001101
0010000010001111101101001010111111100000001010010111001101101111001001101010100110011110110001111100
0000011110110010000010011111110010101111010010100011111100110001010001100000111100001100100000101101
0100011100100010011110011101111110001110000000000010111101001100011100010011000100011100101100011101
0001101100001111100000101101111101100001001011101110011100100100001110111101001110101110011011101101
0010011101100100010100100011000011100000101011111110001111000001010001010011001111110011101100001101
0010110010000010101101101011110011100000001101011100011100101101001111111100110010001011111011111101
0000100100011111110000111111110000001101010010100001110001000100001100100000100100000000111111111101
1011110011011100001100011110100011101101001110001110111100110001011100101101010010001100011111101101
0000110010111110001110101011100000100001110011000010010100000010001100000100101110011101010010111101
1011101111000011011100110100010001010100100001000011000010110100010001011110101111001110011101011101
1101000010010000111111111100101101101111001101001011101100101101010001010001000000101110101100001101
1101010001001111111111101111010100101101011111110010101101110000110100000011110011111111010010001101
1101101111110011100100101100001100100011000011100100000010000000100100001111010011101101101111001101
1100001101110010101100111100011101001101000001101111100011001110101111010100101100011111110001111101
0010000100101101111111001110010000111101111100011110100000101101011111000100101111101101110001111101
0000011110010010000100011011100010101011110100011110010100011100111110101101110001100100010011001101
1111100100101111100011111011100011000011001100010000000100101100111101110011001110111100111101011101
1111001100100110010100010110010011010000011001000110001001111111010110101010110110100101111010111100
0100010011100011101100000010100100001100100001111111000001100011101100100100100100001111110001011101
1110111011111111000100001101011100111111111110001110000001111100000100010001100100010011101111011101
0011010100101111000010000100011101111111110011100010110001011100101101100010010100001111100000111101
1110101011100011101110001100100001100010101100001100110010101111001110000010011101110100010001111101
1100001110011100011101001011101100011111011110110011010011110100000010111100000001011100110000111101
0010101100111100110011111110010001100100000100010001101111010010111100110100010000100010110001011101
0000100000101100101101111111001110010001010000011110110011100000000001100100101111011110100000001101
1011101111110001011100000011101110010011010000001110110000010000100010100011110100000000101011101101
1101100100100000011100010000100001001100000010100011110000000100000011011101011111010000111100011101
1100101111011011110100000010010010110000010010000001010001111100101011101101000100000000110100001101
0101100100110110100010011000101111000011110010110011010111101001011010111100011100001001110110001100
0011101101010001100000100100010010100010110011000000001100111101100010010000011110000011010000011101
1111110000110010010100000001000000110011110001110011010011010000001110101011110100101011111111101101
0100011111111110011101011101000100100000010001000010011101111110001111111101100011001111100000101101
0100000100010010110000010100000000111011100011010001111111100001011100100100000001111110010011001101
0010010100100010110011000011110000101111110001110010010100001101110010011101000000100010101100011101
0010000000111110111110000011011011100001001110101011110001101111011101110001001101001111100000101101
1111110011001110000010100000111100010010100001101111000000101111100001000001010011100001000100101101
1011101111111011101011101011101111001111010001010011111101111110100001111100111111001100000011111101
0000101011100000100100100000101111010001011111001100001111010011000000011101010001000011011011101101
0010010011110000010011110011100100001111101101000000110001111110011110100001001110010001101110011101
1111010001011011101110010010010011010011100011111100110001000011110100001110100010100000000100001101
1101111011110000000010110100010011111111011110000010111110100000010011011100100001111111111110101101
1101111011101101011100110100101110011100011100001110111110110000110011101110110010001101111101011101
0001010001101100100000101100111011111111101100010000100000101110101101011100000000100000111110111101
1110100011010010010000101111011111010010000000100001001111100100010100000100011100110010101111111101
0100101001101111111111011101101010000101111110011110000011111111001010010100001010101001111001001100
0100011110111110011110011111110000000000010001111111110001010001100000011101011111110000101011111101
0000001101000000111110000100011011100010100001011100111101111110111111001100101101110001000001111101
1111101100010011001101010011101110010100010000010001010000011111001100101100100001101101100011111101
0000100001100001001100001011111111100011010010100011110011010001101100001100110000011100101101001101
0000110001000001000001011100011100011011111101100000101110000010100011100100101111100100000000011101
1011111111000100001111001110001110111100000000101011110000011110101101111011100000001100001110001101
1100110011010011011101001011110011011011101100000010011110001011100001010001001110000001101110111101
0100100001010010001110010100011100110100010011001100000001011101001100101011111100001111100001111101
1100110001111110110001010011011100010010101110000000010100011100011110010001110000111101100011101101
0100010011100000110001100000000000111111011101000000110010000001100100100000010000010011000001001101
0100011100111101000011011101001100000011001101110001101101000010110010011101111110000100010001001101
1101111100010011110000011101011101101101011101111110101100110100011111110001111101100000100000001101
1100001110001100000000011110110000110010101101111101010100100011010011000001101011101100101100001101
1111110100000100011101100000110100101101101101101011110000100001011110111011101100000010001100111101
1110100000001111111111100000110100100011111111111110100011011101000010100000100001010001010100101101
0001011111011100011101111011101101101101111100100011010011101011110000111101011101110001010000111101
1100111110111100001100111110010100100010010001100000101101010011111101000011100010100001010000011101
0001000000001110011100001101010001111100000011010100010011100100001111111110110010101101011011111101
1111100001110011110011010001001110001100001011110100011111001101011011100100001101001100010011001101
0000101100010100100011000000111100100000101101011110110011110011001110110001100011011110001111101101
0011100001101100110000000001110000110001010100010001011100000010011100100001100001111111011011111101
1110011100011110001110111100101100111110000010011011100000001100001101011111100011100100000100101101
1100100010010011101110010000110001001110111111001011110011110011001111011110000001011100111011111101
0001000001011111001110001100111110000010111111101100110001001011100001110000011100111110100100001101
0101000110000111110101000001111011101010100011001010011010010110111000001101000000000101101110111100
0000001100101110100011100100011111110000100100001100000011010001000000001110101100001100011111111101
1111001111000011001100101100111011110011001011101100101101010010110010010000001101111111101111101101
1001000100000101001011100100100010001010000000000111010100011011100000100010110010001110100011101100
1001000011011100100110010010111000011001011110011110000110100101101100111010001101111111001101011100
0010111011100100001001101010100100100001001000110001000010011011111111111010010100001001100101011100
1100110100100001101101001101010001001011101110111111000010110000000010110011100011000000011111011101
1110011110100000011111011101001100010100010000100100000011000000110001010011100010001101110011011101
0010100111100000001101110011110110011110100110010011100101101101111100110100110010111001011111111100
0011011111101100101100011100000010010001110011010100010011101111100011001110000011000100000001001101
1101001110111110110001100001000100100100000000010100100100001110010011100010001110101111011111101101
1101000001101101110011001100000100010010010001100001101100111111101110110001011011101101111101011101
1110011101000010010010100010110011100000110010000010010010011011101100101101011110101011101101101101
1101111011101101000001010011001101100100100010001100011011100011100001101111101100110000011011101101
1011100010101111001110010010100110001010110100100000001011001010100101100110011011011000010111111100
0011111100100000110101110110011001011001011010011001011100010000011111100001000110011111110110001100
0000100001101100100100010010011111000100001101001110000100010010000001001110011101010000010001001101
1101111100001101101101010011011100011011111101011101000001000011111100011111001111101110111110001101
1111010001001111111111110010110010011110110100101101001101010000100010001100001111111101000010111101
0010100100100011011111100011101000011011011100010100100000000111101100011111000101011111111011111100
0001100011001110100000111111101110001011110100100000101111111111101110111111000100100011000011011101
0010010011100010110100001111011101001011110010110001011111010011110011000100000000111011111111111101
1110111111110110101111011111000111101001001010110101101110111111011011101000011001001100110111011100
0000100001101101000011101111100000000100100010001111000100100100010000001101100001001101000100011101
0011100011011011100000010000001011111111010000001011100010100001101101001100000001010001111100101101
1111101110110010010001101101110100100000101101111111011111011100010011010001011111110000100100001101
0001111100101100011101100000110010001101001101001111111111000011111111100100011110110001001110111101
1110100001100010011011100010001011111110101111101110011110110000111100011100111100000100000100101101
1101100100000100010011010011111101010100101100010010111011110011010100100001000011100000111011111101
0010110010010001110011001100101011101110000000000011111100001100011110001101010000101011101110111101
0000010011010100001011101111110011011111010011011101110100101100111111101111000010101011101101111101
0011110011001100010011101101001101111100000000000011101111110010010100011011110000101110110000111101
0100001110101101110100010000011111111111110011010001011101000011101111011110110100001101000001011101
0001101100101110111100000011101100001110110001001111100001011101001110110010010100011100011100111101
0011100010011111011100101110000011001101110001110000110011111011110010010001001100110011001100011101
0100011101001101011110010100001100000010100000111100011111111111101110110011011111111101000011001101
0100011011101101000100001111001111110011000011101101110000001110111100100011101100000100000100001101
1111001110100010100000010001110100100001110011011110001100011100000100001101010100000100010010111101
1101100011101100111111100000110100101100011100010010101101000010101110101111111011110100001111011101
0000011111000011100100001101010010101011110000100001111101001100100010110011011111100001111111001101
0010110010100001100100101110011101111100101100100011111111100000111111010010110001100001100100011101
0001000001010011000001001101000001110000000000010100101100110010011110110100010001100100101111001101
1101011100010000010100101101101110111110110001111110010010001100011110111110011110000010010010101101
0000111110100010110010100010001100110011100011111011101110001110011101011111111101110001011100001101
1011111110111100110000011111001110111100111101101101010001110100001011101101001011100001000010111101
1101110011111100100011010100011100100110101111110011000111111001010100000010000001101001010010111100
0000010010110100100001100010011110110000101101011101111011101101110010110010010011110001000011011101
0100000011001111100011010010110100100100010100010011111011111101101100011011110001011110111111101101
1111110011011100111101000000100011001111000001010010010010100011000010110100001101111111010010101101
1110101111100100010001000000010010011110101101110001010011110001001111010100001100110011100000001101
0100100000001110110001011110011100111110100001000011100000000010011101110011101011111101000001111101
1110011111110000011011100011100000001111110001110010000000001100010001010010000001110011010011111101
1100101101110010101111000010111100100010111011110000000001001100000100000001110100100000010000101101
0000000010001101110011110011000010011100110000000100010011011100111111010011000011011100110011001101
0100001110100001001101110001001011110000010010001111011110101110100000101100000001111111100010001101
0001000010100000001110001110000000110000001011100010000010011100101100100100011101100011100010111101
0001100001100100000011100100001111001110110100000011001100011101100010010100100001010000100010111101
0011110001101100011011110010110010111011101011100001110000011011110000100000011011100001011100111101
1100000001000011110001110100000010101111111100001101000010010001010010101111100001110010100001101101
1101000001010001011111100001101100110011111011110000000000111101011100101100011110101110010001111101
0000101110101100110000011110010000000000111100001101010001011111101110110000111111110011000010011101
1011101100011101001111111110010011100010101110100010101111101110110000001111111110111110000010111101
1101000000000000101011110000100000000100011110111100000011110000110010110010110001010000110000011101
1110000100101110001110110011101111101110100000101011100001001111101100001111111110111110011101011101
1011110001000011111111011100000001000000110100010001110010010000110001011110100000001110000010001101
1111110100101100111111110001111111011011110010111111000011111101111011110000110001101101010011111101
0001111111110111111001111111100110100001101111000111011011110010000101001010000001101100110001001100
0010011110001100011110100011010100010011110100100010110001000001000000110000001011100001101100001101
1101001110101111000001011111110000111101111100110011011110111111110000010000110100101111111100101101
1100111111100011111101111101101011110000000010001101010001100011000000011011101111111110000011111101
1101110011011111000010100000110010001100101101111110001111010010000010101101000001100000001100001101
0001001001101101011011001100110011001010001100101111100000000001011110001101110000110011000110101100
1111001101100000011101001101011101110000101011101110011110010011000011011011101110010011000010101101
1100010011001100000100101101000001110011110000011111001011111101001111001110010011010010000010111101
1111001100110000110011110000001100101100011110101100100010111011110010100100011100001101100100011101
0011000100000001011101111100100001111100110100011100001100111101100010010011010001101101100010011101
1101110000010011100001110010100000100100010000111110000001101101111111111011110001110100001111101101
1111001111010011001101100100100011101111100010110011000100011101000100100001010011101101100001011101
0000111101111111001110101100011110111101001110011110010100011011110001011011110100011110011101001101
0011011011100100001100110011011111011110011011111111101100100000011110101100101101101110100010111101
0100101110111111100000101111110011100001010100001100001111010001101110111100000010001101101111101101
0011000010101111000010001110010001000100011100011011111111101011101111010011001111100001000010101101
0000110010111110000001110000110100101110111101011101101110100011010001011110011110001101000010011101
0000101011101110111101100011010010110011010010111101100001011111010100010011000001101110001011111101
0100010001101011110001010010101101101011101110000010110000011100001011101110000010111111111110001101
0100001101000000110000100010000001001111001101100100000011010100101101000011101110100100100100001101
1100011110100100001101001101001111010001110000010011011110010001110000111110010100011101100001011101
1111011110111111100010001110010001100011000011111111101111000100101110000001111100100010001110011101
0001100011000000000010100000001110101011110011110010010010101111100100001011111100111100100000101101
1111000110001101110010001110101001100001000110001011000110100101010100010110011011011110011011111100
0100100001101111100010101100011101101011111100101011111100111101010011010010011101000100010001011101
0011000010010001010100100011001111110000101011100011111111000010011011110001000011000100101100011101
1011111101010100010010111111100011010010001110011110110010011100111101011110000010101110000100101101
1111011011111100111110001111100011010011011100000010110100100000010010100010101100110011000010001101
0010100100010000100011000000010100101101001110000010011111101100101110100010110011010010011111001101
0010000001111101010100011111110010100001000010001100010010001101101110111101110000001100010100001101
1111011110101011110011100011111110101110100010000010111110100011111111000100101101000010001100001101
1110110100011110100010110011110011000000001100011110011110100010101110001011110010110100011100111101
1100010010001101110011000000101100011011111011100001000001010010001111100010110010001110101101111101
1111000001000001001111011011111100011110010010100000001101110011110010111011110010101111010001001101
1110001100100010011100101100001110100001011100110001010011000010011100010011110010101100101111011101
1101011100000010100000110010011111000100000010100010011100010001000001101111100010111111111100001101
0000000000000011100010001010100000011111010010010111111010010000010001010110010001011000001001111100
1101110011001011111101110010100001111100100001111100010001001110110010010011001100111111101110011101
1111010011110010110011001101000000010100101011110000011100100100011100000000110000000100100010101101
0100101110000100011011110010001101010010111110110001000000000011101111010010000100000001010000011101
0100000100010010101100011100111110000000111110001100001100110010010010110000110010101110110011001101
0010100000101111000010011101100001000010100010110001111100001100001011111110010010001111011100101101
1111101110101110011111101111111111110011111101000100001100001110100010000011000001001101101100001101
1111010000011101101110010001010000110001000011101111101111011011110010110000101110111110000001011101
0010101110111110001100111110110011110011110100101100010100000100101111101101101101100100100100001101
0011110010110001010100000000110011000001011101110001111011111101111111100001100010000000011110001101
0010111110001111001101010011110011000100010000100011001111001100000001111111011111111111000001101101
0001110100001111110000001110000100010001000000000000101101010010010010111011111100100011101110101101
0001011111010001000011000001101100010000100011111110101110001011100001010011011101000001000011111101
1110011100110000010010011011110011111101111100110100001101000100011101010011101101110001101101001101
1100010011101111100010110011110011101100101111101101001011101101100001001111000010101110000100011101
1001110010101011001111000100000110011101101111001011110000101111100000000100110111001110011010001100
1101001111010100100011100001111101010010111110100100101101000011011111010000000000101110001111011101
0010001100110011001101111110010100100000000100100001110011101111101101000011001100011011101110011101
1011100000000000110001101100001111111110010011011111100000011111010010101101100000001101011101001101
1100011110001111111011110011011110110010111110111110100011101110001101001101011100100001010000111101
0000111111111110100001100010011011101111101101001100110000000001100000100010010001000000111110001101
0100010011110000100001101110000001001011100010011110110000010000011111111111111101101100100010011101
1111010100010011011100010000110000000000101011101111001011100100010011100010011111101111001110001101
1101010000110010000000100100001110010000001110000010101110010011001101111100100011001100001111111101
0011110110111010000010101010110011111010111000000111101100010100001001100111011001010010101010001100
1110100000010010101101000000010010011110000000111111000011101011101011111111010000011101101100001101
0001000000011100111011100010001110010000100011110010010011101100100000011111101110011101100011001101
1101011101111100011100011111110010011011111101100000001011111100010011010001010011100011001101011101
1100111110001100011101110100011110100100100011000000011110110100100000110000100011010001110000101101
0011110001001011110010010001111110001111110011011111010100010010100100011101011100110010111011101101
0011001100010001111101000110100010010011010110101010011011001010000111101100100001101100110110011100
1000101011000110000110111100000000001011001100111100110111111100001011101001110101101001110010011100
1100100011011101111100110100101111000001101101110010011111101111110000101110000000000011011101011101
1110101111001111111111110010110100100000000100010011111111110011011100000011111011100001100000011101
0010110001110000101011101101101100100000000011010010010001101100000000111100110001111011111100111101
0010100100010011110001111101000010010001111111000000010011000011000100000011110000110011111100111101
0001011111001011110100011110010011010100011101011100000010010011100001111101011111110010000000011101
0100001111001100000001111101111100000011111111110001000010111011111101001110110001100100011011111101
1011111110110010111111101110011011111111110000100000111110100001001011101111101110100000000010011101
0000011011000001101010111110111101110000011110001111101111100010001100011111111110110100111011111100
0001110010100010011101101011101101001111110010110000010000010011000000001101010001100000011111111101
0011010100010011010001001111110011011101010001011101010011001111110010001111100010000000001101011101
1111111101010011001111101101111100111110100100100100101110101111000100100011000010101100011100011101
1111101110110001100010000011111101101101001100001101110100000100100011110001000000101100011111111101
1101000010010001110010110001011100111011100001001100110010111111101100100000011110000011111011101101
1110010010001111001111101110101101011110100011010011110100011110010001011100111100000011000010111101
0010000001100000010001101100001101101100001011100011111100000001110100001101000010010100000010101101
1110100001100000101101010000000100001101001110010100100010011101001111100100010001111101100100101101
0011110100001101010000011111000000000011001101101110001111010011011101111111101100101110000001011101
0100001101110001111011110100001011110010000100101011111100000001000000101111001111101100100010111101
1011100100001111111100011110110000110011100010000010011100110001011111110001111100111100000000001101
0001001101000011011111100000001101100011101110010011010001000000110010110001001011110001010011001101
0100001111111110101110100100011111101100100000011110101101111011110000101100100100000010000000001101
1111010011000011110011001111011100000011011110101111110011010100010011011101010000110100001110111101
1110001101111100100100010100001101010100100100001111111100111101010010110001001101110001011101101101
1110101110101110011110010011001110010100011110111101100011001110111111111100000010110001101111011101
1011110001110011111101100100100011111100101111010000010001010010011111101111100010100001100001011101
0011011110101101110001100000000010010001001100000000010000110100010010110100101011101110011111111101
1101000011011110000100100011111110110011110001101101100100001110001111011110110011000010001101111101
1101110000001111101110101101100001110010001111110000101100110100000100100011011100011011111011111101
0001110000010100000001000010110100010100010010010000010011100001000010000010000001100100101110001101
0001001101010010110100010010001110001011110011110011111101110100011011100001001101101101011110001101
1011111101110001010011010100011101110000011111000011001100010001111101011101011100010100010010001101
1110010010010001110011011101111110101101011100010100101100110100010000111101001100011011101111001101
0001011101010000001101100011101110001111110010011101111100100000001100001110111111001011110100101101
1110100000011011111101000000111110010010010010001111111011110001010000111110101110010001001100011101
0010000110000110011110010011110111010101111110001111110011011100011011100001010000010000100110011100
1100101100110100100100000100101111010100101100001111101111100000011101010100000011011101101110101101
1110010100000100101110100011101111100000101100001111110011011011111111110000011111001100100000011101
1111100010011111011111001111100010000001100100011011100010011111011101101111101110100001111100111101
0001100010010000111101100000101111101110000100011100001111101110110010111011110010101101001110101101
1100100010101011101100100100010011000010010000001110101100010000001111010100010010100011101100011101
0010100011110011101011111101000010100100000011110000010100011111110001111101110001011111110001111101
0010011101100100100000111011101110010001001100000001101100101110001111110000101101000010110001001101
0110100111010000010010001101000111110001110011100000010000010011010101011001110111100000101010001100
1111010010000001100001101111111110100100011100110000111111110011000010000011110001000000000001011101
1101011110110010100000101110100000000100100100000100000011001011110010110000101101000011010011011101
0100011100001110100100011011101110101111000011000000111110000000011110100001100011110011101110111101
0010010011010000110000110000010011011101010000100100100011101111000001010010110010010011010000111101
0100011111100001110001110001000100000000110000110010001011101111111110100000011111010010101110111101
0001010100101101111110011101001110000010001111000010011100111100011101111011101101011110100010101101
0011001110010111010101100000010100111110010011000111111011100111011010111011010100111011101110011100
0001110001000001011100111111010001000001100100100000011110110010101111111100100011001101010010011101
0000001100010011111110110011001101101110011110011111100010010011010000001011100010111101000100001101
1110001101110010101011110000010010011101010011011100000010011101010010000100100011001100010001111101
0010000001101111111110101100101111110100010000011111101100100010000100101110100000000011100010001101
1110110100010001000001010000110001110100010000001101100001010001100100000000000010000001111111101101
1111111110011100010011001101100100000100001101100001111100011110000100010000010010101100011101011101
1111011110000011000000110001011111000000100000111101011101111101101101111101110001110001001100001101
1110100001011111010100101011110000001101001100111101010001100010000100010011100010001110000011111101
1110111101001111100010110001011100100011001100110000100000000011010011101110101011111100101111101101
1101110100010001110100000000111101001100101111010001110000010010000000000011010001000000101111101101
1101001100101100001110000001101110010000010010110100100011011110011111000010010011100100001110101101
1101100011001111100000111101110010100100101101010000111111101110101101011101110000011111011011111101
0001010100000001110001101110011101110010110010010011000000100000100000010011001101111101111101001101
1110000011010011101100111110111110110100000010100100001110101111111110110011000100010001010010111101
1110011011100100000000100000000010000010010100100000000011100010110010111100011111000001111111101101
0100011101011111000000011100010100001100110001011100101110100010111101110001111101100001110010111101
0010010001000011101100101100110011000100000001110010110011110010001110010001111100101100000010111101
0001101110110100100011010011000010101111000010100000111111011111000000111111010011110000111110001101
0000110100001101000010001111001100111100111101100011000010101110001100111111000000000100011101001101
1110100011001101100010011111001101010011000011101111100011101111001101000001011110011011110100011101
0011000001001110111011110000010001100001101011100001011100000011000100100010100011110100100100011101
0011000100000000011111000001111110000000001111010100010100000010101011101100110000000001100010111101
1011110010010010100000000000111011111100001100100010111101000001110011001011101110100001101111001101
0001111011101110000001011101010000110000100010010011000010100100101111010011010100101111001111001101
1110101101111110001011101110101111010010001111010000111100010001011101111011111111111011100011011101
0000101111011110010010010100101100001110000001110010001110010100000001110001100100101111100011111101
0001110100101110001111011011101110111110111110110001001110011110110000011111100100010000000001101101
0010100010000011101100011110101100101100010100000001100000111100000000000010110010000100101110111101
0100100010001111001110001110001100111101000001100011101111110000000001000011001011111110101101011101
0010011111101110000100001110011110100000100010110011100001101101011100110100100010001110100001101101
0100100010011101000000111101000001101111011100110010001111100000000010110010110010101100011100011101
0100100110110011001100011011000010110110110110010010000010111101101100101001001011000110010100001100
0100001100011100101101011101100100100001111110011101000011111110011101000100100011111110100100001101
0010110001000001100000010001100011101100001110010010000001110000010000010000110011000000010100011101
1110000010000001000000110000110000001111010100101100001111110001101100001101000000010011011011101101
0001110000100011010010010010100011000010111101000010111110101100101110110100100001001111111111101101
0010000001111101001100011101001111000011110010100100011110100010000010001110010011000011111011101101
0011111101101100010000111101100000010100100010110011100011011110111110000100101100000000000100001101
1111111111011110100100011011100011000010011101000001011110001110111100111111100100010010110001011101
1001100000001001110000001000011111011111010010000101001001110101101001111001100000100101110110001100
1101100001100011001111101110110100010011100000100000010010100001101100000000001110001111011011111101
0001100000001011101110111111101110110100010001001100011110011110101110011110100000101101100001011101
1100101101110001100100001111111111001110010010111011111101110010011101100001000100100000100011101101
0100010011000011011110110000110001111101111111011111011011101100000001100100000001101110100000001101
1111110011001100111101110001101100011011101100111011101110111110111100011110101101011101010000001101
0001010011010100011110101100010100101111000000001101000011100000000010111011110011110010001100101101
1111101100100011001110000011011110111100000000110001000001010000110011000010000100011100110100011101
0000110100001110000010001101100001111111010000000000111111001110011011101110111110001101111110111101
1100110010001110000001001111111111100001111111000000010011000001110011111011110010111111111111011101
1110100000010001110000100000111100101011100001010011100010000010101101101011101111010000111100111101
1110100000101011101110000001110010010011010001111011111111010001110010010010100001011110110100011101
0000110010010100010010100100010000001101011100100001110010100011101111101110011011100010001101111101
0001000001010011101111011011101101111110101100110000010100001100000011001110100100011101110001011101
1101011101010010011110011110000011100000101110000011000001101011101111100011100100010000001110101101
0110110010000000011000100101110000011001010100000011010000100001110110110100000110101100110100101100
1111010000101100000000000011010000000010011011101100101100110000111111111011100010000010001100011101
0001101111000011111100001110101100111110010010101111101110101100000011101100000001000011011100111101
0011111111011100110011011011110000111011111011111100011011100000101111101110111101011110101111101101
0010010001001110001110100000010000001101001011110011100011111011100011101100110011011111011101111101
0000111101111011100010010100011011101100100000011110101100001100011100010001010001101011110000001101
1101011110011100000100001101000100011100100011011100100001100001111101010011000011001110001111101101
1011101111101100100001000000010001010000000001111110000000000001010000111111110001000011110010011101
1110111111101111001101100001000011000001100000001101011110111110001111000011011101111011100100101101
0100010000110000100011110000110011101110010011111101000001111100011011111100101101101110000010101101
0010011100110000111100001011100011111101111110111101001100011110001100011100010000010100101111011101
0011001011110100101100011010110110110100111111101111001110001010000111000100000101000111100101011100
0001110000010010001100011111001101011011111111001100100001001011101111011100101100111110000001111101
0000011111011100110010110100010010001100100000111011101101011111101100011111011110110011000011001101
0010111111000100100010100010101101011110100100010010001110011111010001010000000000011101011111111101
1101011100100000000001001111110011011101011110011110011011111100011101111011110001101110000000011101
0100000011001110010001001110000011101110011111011100000011001100000010110011000001000000101111101101
1110101100000011111101001101001100110011101101101011110100000010001101011011100010010001001111001101
1111010011101110100011100100100011001100000000101101010011011101010001110011111110000011110010111101
0010001100010001101110011101110000101100111101001011110000111111110011011100111110010100000001111101
0001000010110010110011010001101110010000011011111111100000100010000011100100010100100010111100101101
1110011100110001100001000011001111000100011111111101101011111011111110010011011100101111011110001101
1101110010000100001100000100000010010100010011100100011101010010110011111111010001111111111100101101
1110001110111100100100011011100001010011101011111101110000100100010000000100100010000010001110111101
0001100000000010110100000011001110011100011100100000010000001101111101000011101011101111010001011101
0010110010100001010100011101011101001101101111001101011101010001010100011101101011111110100010101101
0001101111010001110011001111000000101101101101001111111100000100100000010100101111101111111101011101
1110100000000011011011100011000011011111010011000010000000101100100001000010011111000011010010001101
1101100010010001010010010000110000110010100001101100010100010001010010000000010011010000000011011101
0000110011000001110000111111100010111111010001100100011100111110010011110000111111111110011101011101
0101011011010111100100010100110010110000111001110100011101001100111101011010100010111101110010101100
1111011111111001011110011000000100011011111110000010111100101001011100001100101101010101110001101100
1111001111011100111101100011011100011011110001010011001111000010100011011100001110000001101110001101
1110111111000001100000001100110011101011111101001011111110011111010000011101011111100000011110111101
0011010011001100110000110010101011100001001101000100101110010010010100101101011101011101011100111101
0011001101110000000011010001100100000100100010000000110010110100101100011110010010011111110000101101
0010010000011111010100010001000010011111011101110001110010101100001111010010110011101110011100011101
1100110011110001000011101111011110100100010100100100000011011011110010101111100100101101110011001101
1111110011110001010001111111011100101111101111010001010001000010001100110100011111001110101110101101
1011111110100011011101110001101110100011001110001110100001000010011111110011110010101101100000011101
0010000010111001010011111001000000101101100000011010000111011100111100001011010101001111010000101100
1100001100110010100010101100010001010001111101101111100001111111000000111111111110001101110001111101
0010110000001011111101111100000100010100000000101101101101100011000100001101010011010011000010111101
1100010101100000001001011000100010011001101000101000110111111011010011011011110011110101010011011100
1101100001100000000000011100111111000011010010010000110011100100000000110010111110000100001111101101
1110000011110010000010011011111100110100001011111111100100100100001101000000011111011101101011111101
1111011110110011000001111100000000010000111100110001001110000010001100011100100000001111001111101101
0000100001110110100101011011111011001101001000110101100011011101100001100001010100110101010001011100
0010000100011110000001010011111101110001111100111110111111101100110100010001000011110001010011101101
0100010100011110100010110011001100100000111111001110100010101101011100101011111100011111101111001101
0001010010001100000001011011110000010001010011110000111111100011000001001110011011110100100010001101
1100010010101010110110001011100001011000010111100101000001000101111101110100001111101001011010011100
1110100001100001011011101011100011000011111101101111110001100010101100111101001100101110000011101101
0010101111010010100100101100010011110011100000101101110011110011011111001110011101101110100011111101
0010100010100000111101111011101101100000100001110000000000110000100011011101110010111110001111101101
0011000011100011100011100011011111010100001100000000010001110001110100101100000011100011100001001101
0001010100101111100011010000011110001111001101000100001111101110110010001100101011111110100010101101
1011110011000100001110001100110100000010100011000111000010110001110000110101101110100111010000001100
1100000010110100010000101101110001011100001110001111000100000000111110111111110011000100101011101101
0001100100010001100010010001001101111011101101111100101101110011010001110011110010100100000011101101
0100100011100001011011101011111111110100101100110001101100110100100000000000011111110010100001111101
0100000001011110111111011011110000000001000011000000100001100001001100101101011100111101010000101101
0010101101101111101100100010101101111111010100000000001100100011111101011101011100011101101111001101
0001110000101100110100101100101101001100100011110000110010110001110001111101110010101111100010001101
1111100101011011110111001011110110000110010010101101111000100100100101111011010001101010100001001100
0110110010110000000011010101101001000001100100100111010000001000110100011011001000101001110011101100
0001111011110000111111101111100011111101001111101101101011100010101111111110010011010001011101111101
0100101101000011101011110001110010101110001101000011011110100100001110101111000001110100101011111101
0001001101101100111011100000101111001011110010100010001110010100010010110011100011010010010100011101
0100011110011011101101001101010001011100100011010000111011110100000001111011111110001100111101011101
0100011100111111001100001100010011001111000010011110001110100100000000100010110010000001111111111101
0000101100001100001011111110100010011101101110110011101110010000000010101110000001110100000011111101
1011100011101100001011111111001111000000011110100011100000000000110001110100101110101101011111011101
1100100000001100100011010001100000110001100011001100001110100011010011000100100010111111011011101101
1110001100111110101110100011001100110000000000110000110011101011111111000001001110111110001110101101
1100111110011111110100001011110011100000001110110010001101010011010011010100010100000001001111011101
1101000100011100011011111011101111111110111101011011100010000011000010001110000100011110101100111101
1111000100011111000010010100000011101110100010011011100001001111000010101100110011110011101101011101
0011101111011100000011001111000001000010001100000001000010000001001111101110100000000001000001011101
1111101100100000010011001110011111100010010100101111111110000010011100111111101110001110100011001101
1101100001100010100010110000110010100100010001011110111111111100110100101101010000100010010011101101
1010101000101110011110100110111001001111011100001001000011111000001110010100110000001001101110101100
0100001111111101010011000100100001011011111100110100101101000011011011111111010100011111110010111101
0101011011111011101101000110101010011010101100001101010011100110111110100001110111100111000111111100
1100110011101111101010000010111101110011010111110101100111110000111010101000100101100010101011101100
0010110100011110000000110100001101111101100010001100100010111101111111110001110100011111110001101101
1101010010111011101011101111100010111101100011001110001110110010111111000010000011010001101011111101
1011111111100000011110010000011111000001101011111100110010101100000010010010011100010000000011001101
0011100111110011101001111111011110110011110100100011110010110010001100110110000011110011011111111100
0001011010111110010111000101001111110101000100101000010011100101101001101100101001000110011111101100
0000101100100100101100010001110011101101001101000001000001010011101100001101000011010011110000111101
1101110010011101011101101110000000010000010011111111100001001101011101111100101111100100100100101101
0100000001011111101101000000001100001110111101110001100000000011111100110001011101010000001110011101
0001010011000000100010000000111101010011110000011011111100101011101101110000101101001111110010111101
1110000000010001101011111111010000001111101111101101011011111100010000111110110010101011111110001101
0100001100000001000010011100010100101100111100000100101110011110100000010010111111001100000011111101
1110101000011100010001011100011111011100100011100111011110111010010111011111101010011011110110011100
0110000101010000100011011101001001100110010001101000010111001101101100011011010101001000100100111100
0100000100101100101101110001110011100000100001101100110000100011011011101111100011111110010000011101
1111001110100000110100001100010010010100101100000011100011100001110000001110001111001101010010111101
1110110010111111111011111100001101100011100001101011100011011111100000110010111100011100110010011101
0010010000001111011110011101000001011111011101011100001101110001101110001100000011100000111101011101
1111010001011110011011111011111110111111010001100100001111101110011111010010001111110001001101111101
1100000000010010100001111100101101101101111101101011100001001100011101101111111101101101010010011101
1100000100000011111101101111000001000100000010011100001110001101001111110011111100000000100011111101
0011101110101110101001011000010011100000111101100111111010001010101101110010011011101011010101101100
0100011100001100101111100000101101000001110010111100100010101100011111010001001111011011110001001101
1101111100101110101101010011001011111100110010000001110000110001111101011100001100010100101110011101
1111110001011011111100110001100010000011101100101011101100110100001111010010000000101101011110101101
1110001111010001011111010000011110001011110011110010000100010011001101111100010100011110111100001101
1100010011011111011100010000100000000010100011110100100010001101101110001101000001011110111100101101
1110010100101110001101000010100011100010011100000001100001101110010001110011100000110000111110001101
1101000010111101110000010010010000111100111101010011001100111100110100000011010000010001111111111101
0011110011101110000100011110111111101011111100111111010010000010010010111111111101100011001100111101
0010010111000101100100001111000110101010000011111001010101100100000011110101000001011001001010001100
1110001011111101110001101011111101010100010010000001110001011111101110000010101111001110001110001101
1111110001101101000011110011110000100000101101100001010001011100111011101110100010001111000001011101
0011001101000100101101000011010011100011000001110000010000000001011110010100100011000000100011101101
1111110010011111001110000011100001011101110100101101110000011100100001000001000000110000111110101101
0001010001010001000000100011000010110011000010000100100100000010111100111111011011100010010011101101
1101011100000010010000001100000001010001111101000011010011100010001100011110000010111100111101111101
1111110010001111011101111110011100011011111111010000110100000011000011001101101111000000111101011101
1110000001100001100010000001110100001101011101010011101111110011000001101100000010110010001110001101
1111110011001101001111001110000100010001010100000100101011110010100100000001101100101100110000101101
1011110010100011011101010001010000101101011111000001000000100000010001100100010010111110010011011101
1111111110001100010001111101010011101100100000110000101011110000000011000000011101111100000011011101
1101000010111101011011111101010001000100100001101011111100010011001011111111001110111100011101011101
1100110010011110111100010001001111011100110010111011110100010011000001000010101100110010100001111101
1111101111101111100100100000001110100011100000010010111110001110011110011100110000000011110100001101
1011111010010001010000000111000000110111010100011101010111011000001111110110100101111101100101101100
1011101110101100111100000010101110011101100000111100000010111110011110101111101100001110011111001101
0010000001101101111110000001100010110011111100000000010011111111100010011100110010110011000010011101
1101001011100010010000110010110010100011000001100010110001011110101111100011010001010000011110101101
0011111100000001111111001110000001111110001011111101010100011101110000100010101100001011111111101101
0111100110000100010110101101111011101111000000010110000100000011011110010000011010101000101110111100
1100111100100100001101001110100001111101010001010010101100000011100010101101101110100000111011101101
0001010010101111101011100001000001101100100000110010110001001111111100011110001111011111001100011101
1111111100101100101100111110011100100001111110011100100000011111010000101100101110111011100000001101
0011101100001111000001110001111011100100110111110001011011111110110111001011111101111101000110011100
1011101110001110010010000010001101000000000100100010101110101111000011010010111101001100100001111101
1101101111101111010010010100010010011101110010110100000000011100010000011100111111111111101101011101
1111001110011110000100001111111101011011100100001110100001110111010101010101101110010011010011001100
0010111111111111011101100001110000000000001100110100010000111100100011010000100000010011000001011101
1110111110010010010000011101110001101100111100001011100010010000101011111011101111000000010010001101
1101110110101100101000000111111111000000000010001100101100100011000000010111001001000100001101111100
0010111101010110101101100100000100010001111101100111000011000000001010011001010101001111001110001100
0001001111101100110001011011110000001110001100000001000001111100101011111111110010011100010001101101
1101000000101100011110111110001011111011100000101111010010110011101011100010101111001110101110011101
0010001101110000011101010011000011101110111110010011000001001101110000010000111111101100100100011101
1100001101010001000100000100101101100011010000101111010010101100011110101110110011100010000011111101
0010010000000001011100011111111101010011101100000100010001001111101110101011100010001111001011111101
0011110001101100110011101111110100101101011111010000100010101110010010010001111110000001010011001101
1100101101001111100000101111111100010100001111010010110011011100100100000001101100010100101111101101
0001001101011111011101100000110000100001001100101111011110011110110000111101000001100100010011011101
0010010000110010110000000000001100100100101100110001111100011111001101000011000000000000011011111101
1011110001010011001101101101100011110001100001001110011111100010000000011110000000000011101100101101
1101011111000100101111101011111101010001001111110001000000101100010100101100001110100011111110111101
0100001100111110010000000001101110011100111111111100001011110010101110011111110001111101000100011101
0001101111010010101011111101100011000010101011101100001111010010010010011100001011100010100000111101
0011100000100010011111101011111110001111001100000010011011111110100010010011100001010100001111111101
0010100000001111011011111100010100001110001111111011101111110011110011000010100100001100100010001101
0011011110111110010010010001101101011111110100010011000010101110111110110010000010000000100000011101
1110000100001101010001111111110000100100000010110001100000101111101110101011111111101111011111101101
1101110000001111110100010100001111110001100001101101001110001110101100111111010001010001101100101101
0010110010110001000010101101110000100010101011100001101100000011101110111111010000111011101101001101
1110010001011011101111100100001100000100010000110000000000010010000100010010111101010010110011101101
1100110011101111110001010100000011000000001100100010111110111100011111001011111100010000101100001101
1011100011010010000011100001001111110001101101101100000011000100011100011110111011110011101100101101
0100101011100010110000100010111111101101000011100010011110010011010000100100100010101101011101011101
0001010010110100000000000001111100010000101100101110000010010010000010011110000010100011110100001101
1011100001110000111110010100101101111101010100010000111111101111101101011111101111110000001100111101
0000001111000000011011100001000001000001101101000011100100100100000001101111010011100000010100101101
0010010010111101101101001011101100100011111101101111000100010011111011110011000001111110100011001101
0001100001101101001111011011101111100000011110110100001111011101101100101100111101001011100000101101
1111000111101101111010101101101100011100111001110110111110111000010001101001011101100001110001001100
1100111110011110000100000000100100000000000010100001111111100010010100100011011111000011110011111101
1101001111010011111011111101111101110000000100101101111101001100111101001011100100010000111011101101
1011111100000001010000111111001111011101000100000001001101100010111111000000100001110011111111101101
0001000100011100111011100010110001101111111101010001000100000100010010000000101110111110110000101101
1000111000111010101010101000110100001100101011111000111011000100101001001111100110101111110111001100
0000000000100000011100000100010100101011101011110110101011011111011011111111111011010001110101001100
1011110011100011110010001111011111101111001101110011010000111110111111010100001011100000001110001101
0000110010100010001101000010010001010011101011100001110010001101010001000010110011001101110000011101
0001010100101100010001011011101110101110110001010011001110011111001110010011100011110100011101001101
1111111111010010000010011110100010110100010001001111010001111101000001111100000010011111101101001101
0000001001001110110110001101100111111100110000100111000001111011100101110111001111100001100101111100
0000010010000001110001000100010010111011111110110001111101111011100000100000101100110011010010111101
1110010001010100100010101011110010101100100100001110100010010010001011111100011110110100011110011101
1110101101001111111101111011111011101111000011010011011101000010101101110100100001110011010000001101
0001001011111100110000101110101100100000111110001111011110000011101111011110010001110010100000111101
1100010000010011011101011101110010101111101111000100100100011110011111101100011100111100001111011101
0001110011001110001101101110111110010011101110001101100001110100101100100001111100001110101111111101
1111101011110010000010010001110100001101010100000010010000010001110100100011011110001110000100001101
0011111110000000110011111011101000100001110111110010100000001110101101101101111010101111010111101100
1100101111010011011100000010100011101101101110000010000100010011001111000010100001100010101111001101
1110010100010010010010011111010100101100101111100001101110010000100010000001011101110100010011111101
0100010011111101001101100100011111010100011101001101001011110000011111000011010001001110010010101101
1101101100011101110011001111101111100010111101000011110000000001001100110010011110000100011101011101
0011011100000100001111100011000000000000001110100010101011101100011111111110111100000011000010001101
1111100000011111001101010011010011111111010001110011111011101101111101110100000100000100001011101101
0000011111100011010001110010011101001111010001111100000011011100010010100001001101100011100001111101
0100101101110001110011010001110011000010110011000000001101100011100011010100100010100100101101011101
1110101110100000111100101101100100010001110000101111001100110100001110111111111101100001101111011101
0011011101111111101100000110101111011000100010100000000010100011010110110111110011111100110001001100
1100000011010000110001011110101111100011000000110001100011011011111110011100110011011111101111001101
1101100100000000111111100011011011100100011011110000110000100010110011011101000001000000000001011101
1010001000110100110111011110011010010011001101011000011100101001100100110011001011011111100001101100
0000111100011110011111010000100100100011111110000000101100100011011011101101011111100001010001011101
0000010011110000011101110000001110000000101011110011000100100001011100110011111101001100001100011101
0100100100001100101100101101001101100000000001000100011100001111001100000001101110111111110011011101
0000011101110001111011111100010100011100000001111111101111000000111111100011001101111101110001101101
1011101110000100100100011101111110101110111100011101101100001011110010101101010011011100010100011101
1101100011011101011100001110001101010000100001100000001100101100010001011101001110000010001111111101
1100100001001100100100001100010100010011111110100001111100010011111101101110001111010000000100101101
1110101111111100110010000000101110110100011110000011000000010010001110001111100001000000001111111101
0001010000010100101111001111101101111011111011100100101100011011110100100011101111111100000010001101
1110011011111101100100000011100000101011101110111100010001101110100000101111011110001101110100001101
0001000010000001111100000010010001100100001101101100110011000000010010110011100001000010001111101101
0000111100100001111100100010000001100011000011010001001011111101000010010100000000110011101101001101
0010111100000100000011000010001111101101001110111100000010110010100001000001111110000011010100011101
1011101100100010010011110001101011100011110010110010110001101101100001000010110001011110011101101101
1111011011001110111000011000010011011010001001100010101011111011000101101011011111100111101011111100
0000000011000111010001011100011011001010001000001110001110000100101101011110111110101001011100111100
1100110010000001001100110011011110110001101110110000011100011110110010001110010010000100101111111101
1011100100001100001011100000110010011101010001000100010100010011001100111110101100111111101011101101
0100010010111111111101111101000000110010010000101110111100001110100011001011101101001101000000001101
1001110111011011100001010110001100000010110110000001000100100100001100001010001101001011110110111100
1100001111100100000010001110111100110000001110011011111110011101110001111101100011011111101110001101
0001001101100100000100011110001100001110100100001110111100101100110000111110000001010011000010111101
0100100001101110111101110000111100100001100010111011111100001111011100111111011111001111110000011101
0011101011100011011110000000000001100000111101111111000011010011110001011111011110010010011101011101
1110110010101101001111110100000100010001100011001111010011010011100001011100110100001100000000111101
0000010011000100000010010001011100000011100000101011111101011110011110011111000001100011011110101101
1011111100111100100010110001101111011111100010010000100000000010010000010001001110001101101100101101
0000111011110000001100011110010001000001101101100000101110001111100000000010101101011100010000001101
1110000000010100011011110010001101101110100000010001100001000100001101110001111111110010111111001101
0001010001010000100010101111001011100011101011101101010010111110010000011101100011001101111110111101
0000011100011101010000110001111011100001000000100010100100100000110010001111111110001111011100011101
1101100001011100010100010001010001011100000001011101000010011100101100000001111110110000111101111101
1101001110101100001001111101110001111111001100000111110010111011110010100010001000111111000000011100
1100110011010000100011100100100010010001111100101101001100111011111100111110100011000001101100001101
1110000001001110110001001110110001110011010001010001110100011111001101011100000001011111001110011101
1111010001111100100010001100001011100010101011111100010001001110111111000010010000101111001100101101
0100010100100011101100000011011110001100000000001011100010110000011011100001010000011100011101101101
0100011111100010111100000001110010001101101111000011000010100011001111001111011111100010100100001101
1101110010001101001011101110000000000001001111100010000001010001100001100011101101110000101100001101
0010010011000010001101010000011111000011111100010010011110110100100011011110101011100010110000001101
0010100010000100100011110000110010111101001100010010001011101100100001000100100000101101010100101101
0001110100001010111001000001110100110111011110101001101101000001100001101110010111101100111100001100
0100010001011100011100010001101011100100101011111111101011111100010010110001100000101111100000001101
0100101111110000101111000000110010111100000011010000001100000100011111010000100011001100000001101101
0000111101111110000001011111001101100100010010100011011100100011110000000011111101110100001100101101
0100000100101111011100110011011101001110100011101011111100001111101011100011110001011110111011111101
1100100011110000111100010001011101010010111110011110010100101110010001001011100001101101111100011101
0010110011100100101110111100101101001100010001101110001100000001010000100001110011001111100010101101
1110110000110000001011101100100000010011101110100000000011010001000010101111110100000010011110111101
1101011011101111101011100010001111111100011101100010110001100000111100111101011111101110100001111101
0100010001110001001110000011010011110001001011101100111111010000001101000100101111001111100001111101
0000111101001100101100010100001100010010001100000010010100010011011100100011111110101101010100011101
0010000011110011000100001110001100001101100010001100011111011101101101100011101111000100001100001101
1111110010100011110011001111100001111110011110110011101111110010110011101111100001111011111100011101
0001011100001100101101010100000010110001111110010011000010111110001110100100101111110001110001111101
0100001110011111110001110011000011100011101100101110001011110001000000001100111111000000111100001101
1110101101100001100100001101100000100011000001101100101101001111010011010000111011110001100001001101
0001100001010001000010000011011011110000110100000010010000010100000010011011101101001100100000011101
0100101111010000010001111101110011010001100001111111111101011101101110001100011101100100001100101101
0000100011010010110000110010111100101011101100010011011011100000111111010000101101100011010011011101
1100000100010001011101110011010000110001011011110100010000110001111111000011011111000100011100101101
0000001111101100000000011110011101010100101100111111000010001100101011111011111100011011111101011101
0011000011100011100001100000110001111101101011111100001110100010011110110100100000110011110100001101
0011110100101101011110001111001111110011100001011110010011100011111111110000010001111100111111101101
0000010100011100010000000011111110100001100000011110111110001110100011000100010001010001111101111101
1101100000100010110001010011110001111100110000010100001011101100110010110001010000100001001111111101
0000010010010001001111010011111101101111000100010011110001111111100000000010101111110001110001111101
0001000011100000101111100000010000001110100100101101000011110100000011001100010100000000111111111101
1111010001010010110011100001110000111110000011101011110100000011101110001110110010011111000011001101
0011000011110001110001101101011101001011110001001100101100110011110011101100001101010011101110101101
1101110001000000000000010100101100111100101110100000001101111110000001100010000011110100010100101101
0000101101000001111101000010100100101101000011110010001111100011010010000100001100110010101011101101
0000011111100100011101101111100001101011111111010011101101000001101101111110001110010011100001001101
0001101110110001101100101111011100000001100001000100010001111101010011101110101110000010000011101101
0011000010100010001100100000110001110100011101110000010100101111000011110010111101100011011111001101
1100011111010000011110001110111110101101011101111100000000000100001110011101000010011100101101101101
1001111001000010011001001010110001000010101110110110000010101111011000010101011100010111111010101100
0010011100011110100011000011100001111101001100011111000001111100011011101100011101101111000010001101
1100110000010001110100001100001011110000101100111111110011111101110000111110000010100001101100101101
1011110011010100111000101111111101011001110110110000001000101111001010111010001011010001101000111100
1111000010011100111101110001100011000001101100000001110010110001010000001111011111011110011111001101
0101110001100111101011100101111101001011000010010001110010100100110010101101011011101101010010001100
0100100010000100010011111110000000010100010001101101111011111011111110101111011011111101100011111101
1110011111000011101011100011001111000010111111110010101111100011010100011100000100010010011101011101
0100101011100010001100101011101011110100001101000000111110001111101111110100011101000100010011111101
1100000001111110110011000001011101010010001011110001111111111101000000100000010100011100101110001101
0001100000010011001110001100001101010010101000001000111001011010110001110010110100010001001010111100
1100001011100010011101011011100000110010000011100000000100101110111100101110101111101101100000001101
0001011110110001011111100001110100100001000011000000111111010011100000001101000100100000010100101101
0001101111100001000001111111110001010001010011100000100010110010100011001110101110111100110100101101
0010101110111100100010111110100000011011100011011100111101010001100001100100101100101110110001101101
0100010001110001101101100010100100011100100010111110011100010001010100000011101101010100101111101101
1110001100101111111101101110010000011111000010101011111111100000111110100000111100011100100100011101
0001000011100000010010001011101100101110010000111100110100100001111101111110111111100011101111101101
0001111111000011011100001100100100101100110001101111011101111011111100001101011101010011110010001101
0010100010000001001111110100000010010000111111011100100100100010101011101110100000001100101101111101
1100001111001111000001110001111111001111100100001110100010010100010100100000000000010000110001011101
1110000011101111000010001101100011100100001111100000001100010011110100010011001110000100100000111101
0100101100111111100011111111011100100010011111000010111111000011101110000000010000011100100001101101
0001010000001101101101111100101110011001110110101111000100000001000111101000010011101011011101101100
0010110000000100100001001101100011110000010001010010001101111100001110011011111100001110001101001101
1111111101100010001101110100000111010011101010100101101100110011011100110001110011001110111100101100
1100011100101101010100011101110011100001111110010011010011001110010001011100000001000010010001011101
0100010010010001000011100100000000000010101111001101101101001101111101111110101111000010111110101101
1101110011010010110100010011011101111100000001010100100000111011101111010001011110111110000011011101
1111111100011011101110010100011111000011000000010000100001000011000100100001100100000011100011101101
0011010100011111100000011100100011011011101101100100011111011011101011110001001110000001110001101101
1101100100011011101110000001100010100011001110100011000011100001010100010011011100000011101100001101
0000111100011101110000100100010010001011101100110010001101110011110000011100100011100001100011101101
1011101111000001000001010010110011101111110010010011010000110100100010001100111110110000110001111101
0011100010110001000010100010011110101011101111010000011111111111001111000100101100110011111110111101
0001000000001110001110110000110011111101101111101101000001101101100010101110000001110010000100011101
1110100010100001111111100011101100110000010011110001010010010100001101101111101011111100100011111101
0010010010101010110001001111100111110011111100010011011100000011110111011000101011111001010001011100
0011010000100100010001011110101110001110001011101100111100001101001100010001001100111100001100001101
1110111110011100011100110000101110100011010001110010000011000001101101010011100011101110000100011101
1011101110101111011110110011100010001111110010010011000100001011101110101100011111101100010100101101
1110011100010000010000000000001111010100101100110010101100110000001100001101110011011111011100101101
1111111110101011110011010010110100010001011101011101010011111100010001001111111101011101000011011101
0100001011100000111100001011100001110000001110001011100011100001011110000001101111111111101100101101
1111010100101011111100100011000101011010101001100110100000000100000010110100111110000111100000111100
1111101100011101101101010011001101000100101100110011100011101101111111000000111111110010001100001101
0011001101011101110001101101111111101110011111000001100011110011010001011011110010010011100100001101
1110000011111111101101100010000000101101101111011100111101101101101011111011111101010010100001011101
0100100000101110111111011111010001100001111111001111101111000010000100100010110100101100100001011101
0000011011100000101111111110110000111101111101101110000010100100101101000010101111111101100100101101
0001000001101110110010010011011011101100011100000100001110100001010011001100100011010100101110011101
0001110000011111110100011111000000111101101011111101111101000010010000011100010010100000001101011101
1111100011101111001011110001100000111101110010010000011101011111110100100010110010001110100011111101
0001010011111110111110101110001110000010010001001110000001011111000010000001111111000100001111111101
1110000010010010110000000010110000110100100001010011011110100000001011110100010001000100100010001101
1101001101011110101111001100010100000011100100011101010000000000110000000011110000110001110011001101
1110110010000011010100101110101100100010010011011100111101010010101101101110001110110010001100011101
0000000000010010100011011111110100101101111110001111111011101110111111101101001111000010001011101101
1011110010100010110001001111110100101101101111110100011101101110101110110000111111100100011100101101
1110001011110001000010010010111100101111111101100100010001111011101111001011110000010011011101011101
1111001101011100100000100011101000110010011101001010100101010101101101111001001011000110000101101100
1101011101000010010011011011100001111011101100101100101101100011000001011100001100111110110010111101
1111000010000100001100100000010001111111100000111110010000000000000011011111000100000001000100001101
1110011101001011100100000000001110100001100000110000000010101101111110000011110001100001011011101101
0000010001110010000011010100010010100011110010100100000011101110001101110011111111101100100001111101
1011110100101100110001110001000001001110010011011100000010010001110000110000001100000001100011111101
0110111110000010011111010110001010111001101000111000101110100101011001110010000111111110010101011100
1111101101000100000011000000100011010000110010100010011110101111011101001110000010110000111110101101
1100101110100011101101010000110001000000100001100010001111101100000001010000111111110011010001001101
1111011101110100100001001111100001011101001100111110101100111011110001011110110001111111101011101101
1100100001000001011011110100010001100000001111110001110011010100010100001011110010000011100011101101
1100111110011101000100100011001011101100010011010001010000000000111011110010011100111111011101011101
0011110011100000000001011100000011011101100000010001011011110011110010010100011101101101110100001101
0001010001101100001101010010100010111101000011110010111110100010110001111110011110100011111110111101
0011111101010010000010001100011110011101100011001100101101111110001110100011101100110010110100011101
0000111110110100010010010010111100011110000100101110111110111101101100011110100100010100001100101101
0100010000000100001110011100011101011100010011110011000010001011111100010000001100010010000001101101
0000101101111110110100001110101101000100100010111110011110000010010010110001111100100010110000101101
0001100001110000000000101011111100010010011100111100101111100000101101001111000000011101101110011101
0010100010001110011110001100011011110010101101001111001110111100101101000001011111100001000100001101
0011001100101100111111100100100010110001100000101100001100001100011100010010111101111100110011011101
0000000011000010010100100011001110111100111110011111011111100011101110010100000000000000011011101101
1100011101110001100100000011011110110011110010011100001101010010001101100011111100011100110011101101
0000100100010001010001100001110000101111010011110001111100101110010000111110010010111101110100101101
0011001011111101001100110001111100110010110000100011001111110000100001011100001011110000000001011101
0010111100111100101111000000110010111100010000001011101110111100000010010011111110010000111101111101
1111101110000100001100110011111100111100100100001110001111010011101101100010100001001101110100101101
1101100011100000000011001011101100111111000010101100100100001111000011100100100011100001111110011101
0001101011110000111101010000000011010010001111100001101100111111111111101011100000101101110000011101
0011101111010011010001011011101100010010101111111111111011110011100011111100000001101100110010011101
1111100001000001100010010011110011001011110011011011111101001110011100000100010001101111011110101101
0100100001011110110010001101011100111011111111100010001101001100110010000001011100111111010001101101
1100101101001101100010110001010000001110101100000000011110100001100000000000100011100001110001111101
0100100000011111100001001110000011101100000000000001001110001110111110000000011110001100100010101101
0100100011111111000100100100001110111011100000001101110010101111010011101101101111101110111111001101
1100111010011101110111110001100111100010011100101101100000010100011110000111001110101101000101001100
0100010000101110111111111110110010110000011101111100001110010010010001001111011110110011101101011101
1111110011000001000100010011111011100010111100101111101101110010010000100001010001000010111110011101
0000001101101111001110100100001101011111001101001111011110011100000000110011010011001101111110001101
1001011101101101110010100100000001100111001010100011111001110100101101110011010000010100100110111100
1101001011111011100001010011110100010001000100101100010000011101101101011011101110000010111101001101
1101100010010000010100000001001100011011110010111100110100000011110001010000101110000001000100011101
